[PAD]
[UNK]
[CLS]
[MASK]
[SEP]
!
"
#
$
%
&
'
(
)
*
+
,
-
.
/
0
1
2
3
4
5
6
7
8
9
:
;
<
=
>
?
@
[
\
]
^
_
`
a
b
c
d
e
f
g
h
i
j
k
l
m
n
o
p
q
r
s
t
u
v
w
x
y
z
{
|
}
~
¡
¢
£
¤
¥
¦
§
¨
©
ª
«
¬
®
¯
°
±
²
³
´
µ
¶
·
¸
¹
º
»
¼
½
¾
¿
×
ß
æ
ð
÷
ø
þ
đ
ħ
ı
ł
ŋ
œ
ƒ
ə
ʻ
ʼ
ʾ
ʿ
ˆ
ˈ
ː
˚
˜
ͼ
α
β
γ
δ
ε
ζ
η
θ
ι
κ
λ
μ
ν
ξ
ο
π
ρ
ς
σ
τ
υ
φ
χ
ψ
ω
а
б
в
г
д
е
ж
з
и
к
л
м
н
о
п
р
с
т
у
ф
х
ц
ч
ш
щ
ъ
ы
ь
э
ю
я
ђ
є
ѕ
і
ј
ћ
һ
ա
ե
ի
կ
մ
յ
ն
ո
ս
տ
ր
ւ
א
ב
ג
ד
ה
ו
ז
ח
ט
י
כ
ל
ם
מ
ן
נ
ס
ע
פ
צ
ק
ר
ש
ת
،
؛
؟
ء
ا
ب
ة
ت
ث
ج
ح
خ
د
ذ
ر
ز
س
ش
ص
ض
ط
ظ
ع
غ
ػ
ـ
ف
ق
ك
ل
م
ن
ه
و
ى
ي
٠
١
٢
٣
٤
٥
٦
٧
٨
٩
٪
٫
٬
٭
ٱ
ٲ
ٳ
ٹ
ٺ
پ
چ
ڈ
ڑ
ژ
ڛ
ڠ
ڤ
ڨ
ک
ڪ
ڬ
ڭ
گ
ڵ
ڷ
ں
ھ
ہ
ۃ
ۆ
ۈ
ۋ
ی
ێ
ے
۔
ە
۞
۩
۰
۱
۲
۳
۴
۵
۶
۷
۸
۹
ܐ
ܝ
क
ग
च
ज
ड
ण
त
द
न
प
ब
भ
म
य
र
ल
व
श
स
ह
ा
ि
ी
ो
।
ক
ত
ন
ব
ম
য
র
ল
স
া
ি
ে
ஐ
க
ச
ட
த
ன
ப
ம
ய
ர
ல
வ
ா
ி
ு
ை
ക
ാ
ി
ก
ข
ค
ง
จ
ช
ด
ต
ท
น
บ
ป
พ
ม
ย
ร
ล
ว
ส
ห
อ
ะ
า
เ
แ
โ
ไ
๑
༄
་
ა
ე
ი
ღ
ᄀ
ᄂ
ᄃ
ᄅ
ᄆ
ᄇ
ᄉ
ᄋ
ᄌ
ᄎ
ᄏ
ᄐ
ᄑ
ᄒ
ᅡ
ᅢ
ᅥ
ᅦ
ᅧ
ᅩ
ᅪ
ᅭ
ᅮ
ᅳ
ᅴ
ᅵ
ᆨ
ᆫ
ᆯ
ᆷ
ᆸ
ᆼ
‐
‑
–
—
‗
‘
’
‚
“
”
„
†
‡
•
…
‰
′
″
‹
›
₪
€
₹
℃
ℓ
№
™
←
↑
→
∈
−
√
∞
≈
≤
≥
│
═
█
░
▒
▓
■
□
▪
▬
▶
►
◀
◄
◊
●
◘
◦
★
☆
☎
☺
☼
♠
♡
♣
♥
♦
♪
♫
✅
✓
✔
✨
✿
❊
❑
❒
❤
➖
⠀
⭐
、
。
《
》
「
」
【
】
あ
い
う
え
お
か
き
く
け
こ
さ
し
す
せ
そ
た
ち
っ
つ
て
と
な
に
の
は
ま
み
め
も
や
よ
ら
り
る
れ
わ
を
ん
ア
ィ
イ
ウ
エ
オ
カ
キ
ク
ケ
コ
サ
シ
ス
タ
チ
ッ
ツ
テ
ト
ナ
ニ
ハ
ヒ
フ
ヘ
ホ
マ
ミ
ム
メ
ャ
ュ
ラ
リ
ル
レ
ロ
ン
・
ー
ㅤ
一
万
三
上
下
不
与
世
业
东
个
中
为
主
么
之
乐
九
也
买
了
争
事
二
于
五
交
产
京
人
什
今
他
代
以
件
会
体
作
使
保
信
元
光
免
入
全
公
六
内
出
分
利
到
前
力
加
动
化
北
区
十
单
南
博
原
县
发
取
口
可
台
史
号
司
合
同
名
后
吗
和
品
商
四
国
图
國
在
地
场
坛
城
士
外
多
大
天
太
奖
女
好
如
娱
子
学
安
官
定
宝
实
客
家
对
小
少
就
展
山
川
州
工
市
平
年
库
度
建
开
式
当
彩
得
微
德
心
快
怎
性
情
愛
成
我
所
手
技
投
报
提
教
数
文
料
新
方
日
时
明
星
是
時
書
最
月
有
服
期
本
机
李
村
来
東
林
果
校
正
武
民
水
江
河
法
注
流
海
港
澳
点
爱
版
物
特
王
玩
现
球
理
生
用
田
电
白
百
的
目
直
相
看
真
知
石
码
社
神
票
福
科
立
站
第
等
管
精
系
红
线
经
结
网
美
老
者
肖
能
自
色
花
行
表
西
要
规
视
解
计
论
设
资
赌
赛
路
车
软
载
这
通
道
郎
部
都
里
重
金
钱
長
长
门
际
限
院
集
霸
面
香
马
高
龙
ﮧ
ﮯ
ﯾ
ﯿ
﴾
﴿
ﷺ
ﺃ
ﺇ
ﺋ
ﺍ
ﺎ
ﺏ
ﺐ
ﺑ
ﺒ
ﺓ
ﺔ
ﺕ
ﺖ
ﺗ
ﺘ
ﺟ
ﺠ
ﺣ
ﺤ
ﺧ
ﺨ
ﺩ
ﺪ
ﺬ
ﺭ
ﺮ
ﺯ
ﺰ
ﺲ
ﺳ
ﺴ
ﺷ
ﺸ
ﺻ
ﺼ
ﻃ
ﻄ
ﻊ
ﻋ
ﻌ
ﻐ
ﻓ
ﻔ
ﻗ
ﻘ
ﻙ
ﻚ
ﻛ
ﻜ
ﻝ
ﻞ
ﻟ
ﻠ
ﻡ
ﻢ
ﻣ
ﻤ
ﻥ
ﻦ
ﻧ
ﻨ
ﻪ
ﻫ
ﻬ
ﻭ
ﻮ
ﻰ
ﻱ
ﻲ
ﻳ
ﻴ
ﻵ
ﻷ
ﻹ
ﻻ
ﻼ
！
（
）
，
：
￼
🇦
🇸
🌷
🌸
🌹
🍃
🏻
👇
👈
👌
👍
💔
💕
💙
💚
💜
🔥
🔴
🕔
😀
😂
😍
😘
😭
😱
🙂
##س
##ا
##ل
##ن
##ج
##و
##ي
##ت
##ر
##ف
##ع
##ى
##ب
##ه
##ة
##י
##ב
##ל
##l
##y
##r
##i
##t
##e
##n
##c
##5
##7
##0
##3
##غ
##h
##o
##p
##a
##6
##4
##م
##ط
##ق
##d
##b
##د
##ص
##u
##g
##s
##ز
##ش
##f
##m
##9
##2
##1
##w
##ـ
##k
##j
##خ
##x
##ح
##v
##ك
##ث
##ظ
##ذ
##ی
##¸
##ר
##כ
##ו
##れ
##は
##も
##う
##q
##😘
##گ
##て
##か
##ら
##ء
##ض
##8
##ס
##א
##ה
##z
##ो
##क
##ह
##ि
##त
##व
##ा
##द
##ी
##च
##ڪ
##в
##у
##к
##о
##и
##з
##л
##я
##ц
##т
##а
##р
##ы
##н
##є
##ь
##с
##ﻟ
##ﻨ
##ﺤ
##ﻮ
##ﺻ
##ﺎ
##٣
##٦
##٠
##ł
##ー
##リ
##オ
##ヘ
##ス
##ト
##θ
##ᅦ
##ᄌ
##ᅩ
##ᆼ
##ᄑ
##ᄎ
##ᅥ
##ᆫ
##ᄀ
##ᄉ
##ᆨ
##ᄃ
##ᄅ
##ھ
##😭
##💜
##٥
##ᅵ
##ᆯ
##ᄒ
##ᅢ
##ᅡ
##æ
##ø
##ち
##の
##エ
##ン
##シ
##に
##٧
##भ
##र
##ק
##υ
##ν
##η
##κ
##ε
##α
##μ
##м
##і
##ш
##っ
##い
##た
##り
##ˈ
##д
##е
##ט
##ן
##ﻣ
##ﻌ
##פ
##נ
##پ
##ﺠ
##ﻥ
##ת
##ア
##ρ
##ο
##σ
##ι
##ς
##چ
##٢
##♥
##п
##б
##ด
##ก
##เ
##ล
##ۈ
##😂
##ാ
##ە
##ᅪ
##ч
##ڤ
##ᄋ
##ᄇ
##þ
##な
##き
##ﺼ
##ﻓ
##ﻴ
##ﺔ
##ﻹ
##வ
##ி
##ச
##ா
##ை
##ﻻ
##х
##ۃ
##ʿ
##β
##ร
##ะ
##พ
##ท
##ต
##น
##ส
##า
##ı
##ड
##य
##म
##🏻
##ж
##γ
##ﻤ
##ﺩ
##€
##¬
##φ
##ہ
##г
##¤
##τ
##ک
##ə
##ﺮ
##ﺍ
##ﺣ
##チ
##ª
##ˆ
##۱
##۲
##ע
##ד
##½
##œ
##ᅮ
##ש
##ם
##щ
##ി
##ﺘ
##ﺒ
##ﻝ
##ػ
##💔
##ի
##ո
##ր
##ա
##お
##さ
##ん
##ß
##ク
##ホ
##イ
##♫
##█
##◘
##▒
##โ
##ช
##ค
##ю
##া
##ি
##র
##¦
##ٹ
##ڈ
##ڑ
##☺
##ω
##ڵ
##ڛ
##ﺯ
##ﻭ
##ф
##る
##١
##°
##ﻷ
##ј
##จ
##ม
##ว
##ไ
##ป
##ᆷ
##ᅧ
##♠
##ﻧ
##ﺳ
##ﺑ
##ﻬ
##٩
##٤
##ᅭ
##ﺪ
##│
##ﻼ
##ﻘ
##ﻰ
##±
##©
##し
##ラ
##レ
##😍
##ﮯ
##ﺴ
##¼
##อ
##ː
##ﻜ
##ம
##ᄂ
##ण
##ი
##●
##ღ
##ﻦ
##ז
##ח
##แ
##ﺷ
##צ
##ハ
##ナ
##ψ
##→
##ミ
##ャ
##◄
##と
##ۆ
##ۋ
##💕
##²
##¨
##¯
##サ
##マ
##ル
##ζ
##ব
##ন
##ง
##ܝ
##ܐ
##ა
##ﻐ
##せ
##ュ
##ロ
##ム
##®
##×
##こ
##ま
##す
##מ
##▪
##э
##タ
##ƒ
##ʼ
##λ
##π
##ன
##🌹
##❤
##く
##ژ
##テ
##を
##つ
##™
##ٱ
##ィ
##ڷ
##տ
##ւ
##յ
##ն
##ե
##コ
##メ
##あ
##ﻫ
##ﺏ
##ٺ
##ﺨ
##ﻳ
##ﺐ
##ᄐ
##ᅳ
##ێ
##ल
##ﻠ
##ﯿ
##🌸
##☆
##ে
##ڭ
##ﻔ
##ﻲ
##´
##۞
##ڨ
##մ
##フ
##บ
##ᆸ
##ﺗ
##ッ
##ﻗ
##χ
##£
##۵
##٨
##◦
##👌
##प
##ক
##স
##ג
##ð
##ﺭ
##ヒ
##ъ
##♡
##わ
##۸
##カ
##ക
##δ
##ڠ
##ﻢ
##ு
##ட
##ﻋ
##¢
##ﻄ
##み
##や
##য
##ս
##ე
##ے
##ﺕ
##ͼ
##►
##स
##☎
##ﺖ
##よ
##ห
##ξ
##✅
##÷
##ŋ
##ﺟ
##ﺲ
##˚
##۷
##۴
##श
##め
##ʻ
##け
##そ
##۹
##ﺸ
##۶
##ツ
##һ
##ज
##न
##த
##ர
##ﻙ
##⭐
##ٳ
##ய
##ケ
##−
##ᄆ
##ல
##կ
##๑
##ђ
##ﺧ
##👍
##ڬ
##ﻡ
##キ
##۳
##◊
##▓
##³
##ﻛ
##▬
##۩
##ข
##ﻞ
##ย
##ں
##✓
##✔
##🇸
##🇦
##🔥
##₪
##ﺓ
##え
##ﺰ
##க
##🍃
##➖
##ﺬ
##ウ
##º
##¹
##۰
##ᄏ
##ᅴ
##ニ
##ﮧ
##đ
##💙
##ﯾ
##¥
##ﻚ
##ħ
##ত
##ﻵ
##µ
##ப
##ٲ
##˜
##ћ
##✨
##ﻱ
##ﻪ
##👇
##💚
##ﷺ
##ﻊ
##░
##ℓ
##ग
##♪
##ল
##ﺃ
##¾
##ㅤ
##⠀
##🙂
##￼
##★
##═
##←
##ম
##👈
##ʾ
##ѕ
##ﻃ
##♦
##😱
##ﺇ
##ब
##√
##🔴
##😀
##ﺋ
##№
##▶
##🌷
##■
##↑
##℃
##✿
##♣
##∞
##☼
##ஐ
##◀
##≤
##❊
##≈
##≥
##□
##∈
##🕔
##❒
##₹
##❑
ال
th
##er
the
##in
##on
##ed
##en
##es
##or
##ال
##an
##at
in
##ar
an
##al
##ية
of
##ing
##it
##ان
الم
to
##is
##as
##ات
##ou
and
##ic
في
الا
##ion
##ار
من
##ين
##om
##il
##re
##ent
##ام
##el
##ها
ان
##id
##ec
##ير
##ول
##et
عل
وال
##st
##ol
الت
##را
##ur
##ad
for
##am
on
##ay
##ري
st
##ون
##ro
##ac
##th
##ما
wh
الع
##اد
##ut
##le
is
##ست
##ir
##ig
##ter
على
##ve
##اب
re
##ly
##نا
##ation
was
be
##لا
##ver
##ow
as
it
##ور
##ot
##وا
he
that
##يل
##ch
##يا
##ith
##im
##يد
الس
al
with
fr
##us
##ers
لل
at
ch
sa
##ill
الح
con
##em
##os
##هم
##ce
##وم
##est
الى
sh
##ere
com
20
##ul
##nd
##يم
بال
by
وا
said
##عد
عن
الق
##and
##ist
##رب
##اء
19
##op
##ld
pro
ne
##ag
##ri
##ain
الج
الب
الد
##عل
##ess
##لك
##ذا
su
الش
de
##ود
مع
##اي
##اف
from
الف
##ect
##ak
pr
##حد
##oc
##ate
##igh
##عة
##ment
##ear
##un
##يس
##ap
لا
his
##رة
الن
##قد
##رك
##مل
se
le
ex
un
الل
##ts
##ity
##ies
##ab
وت
##um
are
##od
##iv
or
##قة
##ct
##art
##من
pl
sp
ha
##وق
cou
##all
##pp
##ore
##ian
tr
##بي
الخ
التي
ar
##if
##ast
##وس
الك
الذ
##ud
##ial
##se
##بر
##ia
##ort
we
##ich
##سل
has
او
ما
الص
##ard
##ive
af
go
##سب
##مة
##يت
not
##يه
but
##كن
wor
##gh
have
##ber
##رو
##ust
##ra
##يف
##ther
##تم
ag
##00
were
year
##ant
##ack
##بل
en
ab
##ost
كان
##ell
##ong
##اع
ام
##اس
new
##حت
cl
##ish
الان
##ie
##رف
لم
comp
##يات
##ذه
##end
##كل
201
off
this
##ated
ad
##our
per
##ary
had
##جل
الام
##ight
الو
##ip
am
##ge
who
##ome
they
##هد
##رت
##قي
which
##يع
##ound
##قل
##ارة
##out
اخ
كل
اي
##صل
##day
##با
هذا
will
##عت
##ine
##ice
##ok
##دا
##ions
ac
##قت
rep
##ue
res
##في
وم
الذي
##ame
اس
##ould
مح
##ني
mar
its
##ry
200
inc
الط
##ub
their
##oll
است
##اني
##سي
rec
وه
##ough
after
gr
all
##so
##اص
المت
tw
fir
man
##pt
##حة
##بة
##جم
bo
الث
الله
one
بين
##nt
##ous
cont
##ته
##كر
##وج
##ach
##ign
##لي
هذه
الي
mon
##ord
##رض
##ical
out
اب
also
us
##فا
##دي
br
##ans
##av
بن
##لال
##ure
int
الر
##يرة
up
no
comm
بعد
me
ind
##ــ
##كت
##qu
exp
been
##iz
pe
part
##سا
##ime
ول
two
##age
##mp
ser
##كان
##uc
##كون
co
first
##ence
##نة
##ations
##man
##عب
inter
##وب
over
can
##مد
##وع
وق
##شر
would
##وف
##ide
##نت
##هر
##دم
وب
##صر
##اج
##ass
##og
sec
##ks
##ke
##ree
##ff
##ace
##ose
مت
##قا
##ire
##ديد
more
her
والم
pol
min
##ond
##الم
##لة
sc
she
dis
##عم
##راء
##سم
##ath
علي
##وض
##كم
والت
##يز
هو
##خل
car
fin
يت
##طة
##وي
pres
##own
##اض
##سة
##ادة
##act
##ang
app
##ru
##ational
##ates
تم
##ib
##دة
##ail
when
##عا
##يب
el
mo
bec
about
##ition
##رج
##ors
te
##وت
rel
there
##ولة
##ident
##انية
##اري
##ens
الاس
##ile
so
تح
##ade
dec
play
199
##wn
##amp
تع
لت
##عض
اك
you
cr
qu
##ict
مش
##oin
##ance
##ثر
##ake
ev
count
##ارات
##illion
##vern
##ely
انه
##طل
وان
##فس
##جا
fe
الاخ
ذلك
##در
##ally
##يث
govern
bl
##ater
other
18
##وات
##جه
##per
acc
la
##بد
##فت
att
فى
##old
li
##ورة
do
##ite
##الة
some
بل
##ved
par
##cent
##gr
##وز
than
##ited
ro
##خص
الري
##ركة
##lud
خلال
##ase
##رق
pre
peop
##رد
##one
##رى
##urn
العام
##الي
##ubl
مد
people
##بار
عام
sch
##ays
##لم
time
##لف
بم
fl
10
كما
الغ
form
##ult
##مر
##ory
##ريق
und
cent
into
##ild
المن
##وري
له
nor
با
work
##ings
##راي
offic
##ick
##iss
government
##وك
المح
##ep
##وية
##طن
includ
percent
##رح
يم
##itt
##we
يع
ass
وي
قد
##orn
inv
اح
##ied
##able
reg
##رن
last
##iver
##ذلك
##ey
##ند
##ican
##vel
##سط
imp
again
##land
##enc
تت
bet
##fer
العرب
kn
##use
war
##for
##ثل
cons
##anc
##ah
##uring
##شار
##اح
under
ولا
##ents
ear
world
اليوم
##بن
##حدة
act
تن
des
years
##ينة
sou
الاول
high
قال
bu
اله
اف
بت
ري
##قر
##وى
president
##تها
##ضا
lead
ات
الز
may
hel
him
##ince
##خت
الاست
##يين
##افة
اد
##ton
جم
lo
اص
them
للم
عليه
if
وز
three
##ft
هي
##الية
##عية
##ased
ph
مس
amer
##ock
##ters
حت
اج
most
المع
gen
##ek
قبل
only
حيث
##ons
##ank
ومن
الدول
بد
عند
win
بح
يق
col
وج
##ious
jo
بان
def
##يلة
غير
##ومة
##eth
##ood
ون
##يش
لان
str
##وان
##دد
how
state
##lo
مست
mil
##وة
##als
##يان
##les
به
##ember
##ues
##ected
##hn
end
compan
حتى
المد
##reat
##لب
##gan
12
sy
##لام
احد
العالم
##ina
15
##صف
وح
سي
##كي
ma
##صاد
add
during
official
##سية
bro
##قط
##ities
انت
bus
##oup
call
المست
gu
عمل
والا
##عي
##قات
##راييل
##ثير
بش
##ool
000
ter
##ement
million
##fore
##سلام
##راق
rem
11
رييس
dep
##ناء
##ier
could
عبد
كانت
وقال
ret
##تي
publ
تق
against
just
##ause
where
##ward
group
au
اش
team
بعض
any
هنا
وفي
char
thr
##امل
##cc
##ix
النا
back
dem
##اه
four
united
ed
##جلس
air
cap
##بت
##hip
ست
##وقع
##are
##ope
before
الاج
prod
الجم
while
فان
تش
##io
##uss
المش
supp
mark
med
national
وع
second
##eral
وك
##اط
##pen
##con
##ets
##ating
##ween
what
يمكن
##rib
وهو
ثم
##air
south
between
للا
##ision
##رات
وف
اع
since
##form
sm
##ason
intern
made
وكان
many
##ett
prov
##بح
##نية
states
السيا
##قدم
##ics
الات
##به
through
الرييس
city
يوم
##ered
لي
##ery
العمل
##يمة
elect
##mm
يج
##اك
##ابة
loc
##تما
now
مو
sur
198
لكن
eur
##ral
##عود
##سطين
##ister
##طقة
##ouse
##ning
##زة
##لسطين
##ثة
مج
day
bel
##سلم
##فة
##ily
المص
##oss
month
##ines
##فع
##هل
##row
school
##ادي
##ork
اذا
للت
stud
##سبة
##ction
##يك
poin
##ضع
يح
اكثر
because
محمد
like
law
sub
ann
14
##ارج
fil
##واق
وقد
##istr
##sp
cour
##nc
##ars
fam
ever
##فر
##ind
then
eng
##way
serv
did
17
long
found
ولك
الانت
اول
show
ين
##ven
##يية
report
##und
##led
##كة
##ضل
16
المس
##ash
##ivers
such
down
##وال
lar
اق
week
##ower
الحك
##atch
كب
##urs
مص
##au
##ual
##وار
north
وس
well
##az
##رية
تص
##ms
##اريخ
##ollow
##up
##ورية
inst
##اصة
اعل
sl
##ists
say
##ise
econ
##رم
##iel
فيها
econom
dire
##atur
follow
run
##ink
wr
country
##ركز
##رام
##از
13
فت
##son
contr
ob
em
spec
ولكن
ايضا
##ert
##ديدة
##uch
##orts
mus
being
own
my
##لاح
##ative
##ular
##emb
american
مق
plan
##سان
الض
##ينا
##ames
دول
##its
company
##urr
bar
invest
##عات
##بية
بها
##غير
30
##ph
نفس
نظ
open
old
##جة
##aking
فيه
##حي
##ss
##olog
##ution
يكون
house
المج
البل
sign
المق
##tern
##ving
##صول
##بات
##ai
##ished
including
##ress
milit
##سات
المتحدة
##دى
##ife
##كية
##بع
trans
##حا
num
##iew
##قيق
##ments
polit
##xt
##يدة
##ged
sen
مثل
197
##ern
تج
##يو
##طر
بالم
كت
even
both
##صة
##ev
##انون
##ــــ
tal
direct
##velop
##pr
cor
25
##fl
##ces
##كس
العربية
##att
نح
international
##ful
الاسلام
head
##ital
##وعة
##ov
progr
##الات
الرا
later
develop
##رار
public
oper
##ee
##ange
##امة
eff
##طا
##res
##ica
لن
season
est
##ble
record
##قتصاد
لح
arm
main
##iam
الال
اط
حول
##nes
##ained
التح
##imes
##زل
##ency
##ull
these
near
جن
former
هناك
دا
##يط
تد
##ريد
##ساعد
##ives
انها
اعت
##سن
##oci
##ices
gre
del
rele
##ific
##يرا
##يفة
اث
maj
منذ
sw
##عر
عدد
##ضاف
tri
univers
##te
home
minister
##ield
##اة
##elf
لها
disc
start
sever
يد
يست
##شف
##ted
الذين
art
sal
سب
##هما
##وص
الاد
ملي
pop
##ject
##min
det
اخر
##ird
kill
leg
##ently
still
camp
##فل
##gest
dr
sing
don
##ather
سن
conc
##ik
المو
##ole
عم
##ابات
pri
دون
##osed
##til
##eng
الماض
بع
##حدث
بالت
##جد
police
china
##يون
used
contin
help
الوز
resp
make
those
##خد
تحت
##زا
##ount
game
الاف
wom
europe
far
جميع
##ختلف
##other
dif
commun
##ized
##rael
##اش
##ty
##oot
##enn
israel
##ene
##ربية
party
##رس
196
##مت
##راف
حق
ger
##ism
accord
##ys
major
pers
مصر
called
ra
##ury
المنا
red
الامير
every
##عمال
ins
##افظ
ir
secur
iss
pal
شي
##ether
##ضي
##ودة
##let
تط
five
told
##ants
ext
##لت
##ever
حد
way
attack
##ible
officials
child
خط
ira
##ظر
##ional
opp
won
##ave
السل
doll
meet
##زب
brit
tel
##فاق
الاح
اما
prof
##ارية
##ظم
الفلسطين
billion
another
اخرى
##iness
russ
##ner
##واء
prot
stat
##els
met
##رش
يتم
ود
##ماء
##قاء
good
jun
البح
امام
##ians
##der
const
سل
sim
six
john
##سبب
الجن
##ying
##ought
##يج
##ility
##يران
تس
our
iraq
وهي
وش
need
والع
##ret
vis
wed
##لاق
##stem
##مال
##علم
adv
##له
hand
##وح
take
##ries
get
vi
الاش
##iday
should
التن
##lear
##ross
university
build
##ission
news
##اخ
##حاد
next
##ures
##وه
until
##لاث
bank
##رين
##وول
much
program
id
organ
##راج
##ute
york
several
system
aust
الصح
العراق
pass
الامن
السعود
اغ
##خدم
##فاع
cre
##لى
##ont
منها
يش
##ves
##ug
##امج
mod
##طاع
return
##طال
##ارس
military
##ball
عليها
top
بشكل
مجلس
منت
very
known
##غم
##over
support
##app
according
auth
اذ
set
hist
##لق
family
however
market
##ief
business
##erg
##ior
##ايات
##ضة
##ised
ge
##يي
##انب
cond
fore
##ins
left
##قال
الحكومة
general
##ax
ste
prom
تلك
mid
here
court
##ned
##روع
الوق
west
rece
same
want
##ived
##ويت
##ling
number
ve
##سين
around
tues
الاعل
tuesday
early
##وضوع
لك
champ
##مان
hal
##بط
##رون
##ark
24
wednes
لبن
##red
wednesday
film
ke
conf
based
موس
##ats
cal
21
spe
jan
##thern
bre
##اما
##جموعة
##apan
##embers
##ains
##ady
##ren
monday
##ياة
الموا
##ection
prev
har
power
##طف
thurs
##ually
appear
##وقف
فه
thursday
rev
##ومات
big
##ley
##قب
friday
japan
ليس
pat
political
curr
##غة
german
incre
rest
##عليم
ju
تكون
والح
fed
المنت
تست
تف
manag
عبر
members
##اهد
##ocr
22
100
موا
##ecut
ابو
security
press
coll
turn
produc
##مار
الشي
##ague
##جنة
الساب
foreign
##اته
shar
use
##صد
الول
##زيد
##ظام
##يادة
author
##used
فر
town
##ale
##عار
وعل
##urch
##ights
emp
##alth
50
##ued
نت
##par
third
##يق
place
##osition
each
##نين
land
trad
alb
##aw
اسراييل
area
hum
##وط
شركة
##ided
##earch
stand
شخص
##تمع
##وسط
put
join
##غي
##فق
care
وخ
##نى
##اث
chr
##ظيم
##مية
194
best
val
appro
terr
الاولى
local
democr
post
##الح
التج
وما
الاسراييل
2018
الموس
وذلك
فقط
##رها
الاجتما
look
المغ
الدولة
see
الوطن
##bs
##كا
vict
stre
div
av
اض
##atic
##خدام
took
##ربع
bas
##ounc
195
سيا
الخارج
##ورو
##ench
##ium
sk
##ركات
##amed
march
##قول
among
القد
##ead
ref
life
##كري
##ذكر
##رفة
##شرة
spok
##انيا
know
##وما
اجل
##inc
##aly
became
##ott
produ
held
tec
following
##راد
##الت
##وير
foot
والد
فقد
##طي
series
right
##cept
##ويل
الدين
##اذ
men
##زم
##ابل
##واقع
امس
agre
##خب
##ington
##هدف
##aining
لبنان
small
associ
##ياء
##gin
points
distr
احت
##ony
##رنامج
##pl
الاقتصاد
##0s
times
عندما
women
الماضي
##lin
indust
republ
book
sept
رس
صح
##يار
##ric
going
##امعة
الامري
vot
حال
لد
line
final
23
##ages
مما
واضاف
fac
##باب
تب
##ked
##ides
واست
اليه
som
partic
وزير
tro
الامر
الشر
##ger
##ew
allow
sund
##ليل
باس
grow
المم
test
##ended
move
deb
الكت
person
##aim
league
الناس
born
depart
port
##ired
##loy
##ody
عب
days
##ient
##قيقة
الثاني
للح
والتي
great
##ese
net
think
##ored
منه
##ذي
ولم
differ
##istan
##واب
##يدا
اخت
السلام
real
east
لع
came
##ison
##ama
fund
##ضر
class
موقع
##ضم
مدينة
الانسان
##ush
ضد
بما
##ipp
##ظمة
الشعب
##اية
requ
واحد
reported
##عاون
##ense
العامة
proc
اللا
austral
##bo
compet
##ops
aff
led
##يام
حين
played
san
ant
##ايل
##زيز
music
death
وقت
imm
design
poss
service
##اعة
miss
##ضاء
star
نق
games
##by
began
40
##rug
afr
tak
pa
ca
children
dollars
##ention
داخل
سنة
countries
الوقت
##ulation
##رير
الاث
says
club
يا
##عتبر
name
##uck
sold
chief
##قم
along
white
مم
بس
##yp
released
##ator
##وريا
sunday
does
##ically
##iving
##thing
ang
dri
few
ابن
##iting
##ately
##aph
announc
peace
repres
اللبن
##ety
##دت
##وث
##thers
بط
##بلغ
wash
##فض
##راه
##port
والس
جدا
حل
الاسب
oct
june
ارت
##ann
sol
26
##ially
27
economic
list
يس
يجب
consid
office
لو
##قبل
crit
aug
##راة
##vers
التع
الفت
وص
بق
il
##طني
##omb
##الى
months
##ech
##ارت
##ones
##ريب
techn
ent
##ending
##اتي
##عيد
late
deal
reach
match
##aff
احمد
british
فا
28
##line
مليون
##ering
##ting
##ديث
فيما
short
المنطقة
occ
##ابع
eas
##estin
rad
والن
##br
expl
##ize
##co
hold
مخ
##عداد
soc
committ
var
youn
orig
بالن
health
نحو
##ured
colle
##داد
center
##get
without
killed
##مو
po
wal
leaders
##ards
level
##لاف
وهذا
admin
member
doc
بدا
interest
bill
##هة
summ
المخ
belie
##ness
##ology
half
اهم
past
العلا
july
sent
##واصل
بسبب
succ
نها
##راض
الدا
fact
vill
##راك
sus
مل
##روف
black
dist
ah
لما
cost
دولار
##طار
central
apr
##inal
beh
european
import
##ified
عدم
earl
##ريط
##كتب
بك
water
طريق
added
##ience
never
##قى
##حل
proble
##sc
##ham
free
reb
pay
منطقة
بج
صلى
##uary
##حات
satur
افضل
champions
financ
ترك
الولايات
##نان
success
##طق
inform
الاحت
راي
mal
district
sit
##هور
lab
##lish
case
##كتور
april
equ
prop
bush
السعودية
night
##قاط
تخ
##ruct
##ising
فل
washington
tit
arr
قا
geor
##augh
##طب
##كو
army
##علومات
song
العربي
tot
saturday
exper
##زمة
hour
##ريقة
corp
gl
الاتحاد
##ياه
خاصة
counc
##ten
award
spokes
##ference
العم
##aign
مب
##جر
secret
##gress
come
cut
too
polic
انا
##ايية
french
hard
represent
##ريف
وزارة
عملية
viol
##med
campaign
meeting
county
quar
##sh
mag
##سكر
2010
ban
##emp
##ature
round
##ex
union
fre
administr
litt
civ
##وء
event
september
الشيخ
##ارك
strong
director
expected
قام
##bert
claim
##جمع
فال
##ization
##طية
وجود
193
وسلم
الملك
##unch
نش
human
january
council
money
capital
العل
كبير
point
##ges
road
pet
##تمر
kore
album
##حية
العلم
##ضية
##فيذ
##نع
find
little
جديدة
2017
##ظهر
enter
stri
##itions
dom
rul
سم
research
29
complet
##قديم
مختلف
##شي
august
less
عشر
##دية
##غل
القانون
side
##اول
church
department
للع
##ots
##eration
alth
cup
special
##ourn
##لاثة
يقول
##ايق
حك
ذات
وعلى
force
##يارة
##خابات
جديد
بي
although
christ
##side
##همة
##جهة
election
واك
fell
التى
island
hit
الرياض
oil
##ملة
king
phil
vo
region
##اق
المركز
##ron
fur
##erv
forces
##ried
dav
tur
project
ابي
desc
##iter
نس
##الف
fire
الخط
الخارجية
control
صف
trade
dra
sett
clin
##جز
##erc
الدولية
within
palestin
jud
##كرة
##ربي
##لاء
##يني
federal
##صار
الوطني
##حق
##wh
development
chang
اسم
lat
##af
##aced
مجموعة
##ober
##مس
ur
profess
##ators
##ural
كثير
went
must
let
##عى
##وبة
least
واس
den
##be
october
عنه
invol
2008
companies
الكثير
##iven
##ادل
##mber
##باراة
ويت
اليم
fall
civil
##inese
##طات
prime
fri
ور
نفسه
31
جز
الارض
neg
due
##اهرة
##que
december
الدولي
leader
dou
feb
بص
tour
دور
##ends
fail
##ases
اكت
large
field
##itch
quest
عبدال
##حم
حس
الاعلام
hol
النظام
building
your
investig
nove
chinese
##وجه
##ects
saying
low
##حاب
تاريخ
كبيرة
november
educ
##افظة
السود
earlier
fight
##ربة
canad
##زال
ap
order
##ابعة
died
المه
batt
الاك
##جن
الخاصة
##ung
لهم
كيف
execut
المقبل
though
##ودي
##جب
station
وغير
يف
mor
##دين
##ival
##طلق
جاء
2011
park
susp
##ilt
2016
بار
الاص
process
والش
##وجد
commission
ball
mass
super
activ
##لية
الشرق
lost
##uct
become
##estern
وضع
مك
vol
بو
conv
mich
tax
2009
##لكة
الوا
35
##aper
ومع
مبا
inj
##عدة
هل
##تين
القا
##طلب
estab
##itor
نف
##int
telev
##الب
##iod
الحياة
stor
clear
##صوص
##ands
##20
التص
announced
lim
##ler
بر
coach
##يرات
broad
ago
##رحلة
france
السياسية
##قاف
##osp
##lex
##ogr
total
football
today
quarter
received
2000
الاحد
ضمن
gold
##rop
##بير
2006
##acy
##اقة
##وله
2015
stock
arg
hom
##eal
priv
got
##lement
العق
##رجة
##ane
2014
العديد
making
الثلاث
##صرية
##utes
keep
non
تجا
young
##ida
infl
los
##ارب
##rem
previous
##ماية
برنامج
الجيش
عمر
away
والف
##go
الوزراء
الحد
تو
الوطنية
##يته
instit
hot
2012
الفرن
close
##ضح
rich
##فظ
يص
##راسة
##ring
النف
college
result
history
others
##ively
##ef
الحل
اكبر
son
period
الدكتور
##ايج
im
seven
##يدي
aut
##ريم
different
مرة
##idence
الخم
##سايل
2013
age
لدى
mc
financial
##ump
##ران
العد
واخ
statement
##جي
كم
inf
##iers
مكان
شر
might
##oman
##امين
social
الثال
nation
##بيق
##عضاء
الاسلامية
الطبي
بيان
##ساعدة
##ready
present
often
rights
##ption
##uel
congress
once
story
##ij
terror
المشار
already
information
addition
full
championship
relations
##verage
500
##akes
whether
##نف
كنت
squ
bur
##جات
mean
##ds
##tain
arch
##ably
الظ
##ences
given
##ادر
وجه
further
صور
##aster
recent
host
##ament
2007
موضوع
street
tar
ham
المجتمع
include
committee
ep
الصين
chair
##هاز
شيء
iran
##epend
television
المصري
60
##ادرة
glo
قت
مركز
ادارة
##yn
century
named
independ
exc
##ana
كتاب
eight
step
191
population
america
repl
rock
الجديد
##باح
conference
نقل
##ways
##طيع
troops
الاخيرة
عاما
spokesman
يخ
تل
دولة
المجلس
التش
##ره
##ساء
##ared
##جال
##ruary
agency
mot
february
trav
امن
##less
اسب
##هتم
##جيل
single
وكانت
تحد
board
better
view
##gy
fut
باست
concern
السابق
عد
باسم
##طع
اهل
التد
journ
##انت
##كمة
visit
parl
قدم
init
والص
التعليم
##يارات
##كار
##ومية
##علق
استخدام
sug
russia
مث
الحق
##برا
##شة
##صال
##اتف
talks
community
important
vir
192
##self
##انا
##اسية
##اتب
##ograph
having
##املة
sn
##ده
typ
##انة
base
##work
سنوات
dev
dam
رب
southern
desp
mat
river
employ
##وبية
william
##oy
للش
حزب
المدينة
##قليم
المسلم
الاربع
##اتها
الشخص
share
البلاد
والق
واش
moved
bomb
فريق
conn
الحرب
parliam
يب
التط
decision
mount
المب
##قرار
لقد
للد
##سكرية
command
##يح
2004
begin
working
45
players
lond
israeli
##تهم
western
##زاير
##ruction
الجديدة
##esh
##تيجة
الارها
اعمال
band
cult
describ
threat
واحدة
بغ
##icans
industry
parliament
الاعت
impro
حالة
give
##ky
قر
##lam
##امن
started
london
لش
##istry
refer
cand
bal
dead
stop
role
2005
التاريخ
##ances
##سلحة
##ribut
economy
india
السياسي
qual
اجتما
##aged
##ونة
عدة
hosp
فعل
sour
##ata
##ze
بف
مسوول
عرض
media
ru
##جاز
الثانية
lik
front
الجز
##ظيف
seem
تقدم
واب
##ايف
الفلسطينية
##مي
يحت
##اضافة
##ابية
alm
مض
عقد
taken
bud
key
الارد
##داء
##دمة
بير
تنا
##yl
##رع
##ensive
##ادث
##صادر
##مبر
cross
bord
##ened
مف
ذكر
فلسطين
administration
بكل
شهر
env
russian
لكل
وبعد
calif
والذي
grand
built
clinton
##كلة
وعد
##ادات
food
##الد
ord
ايام
##حن
saf
common
حسب
وتع
lot
##جان
نوع
read
##اهر
##bal
pak
fig
northern
از
charac
##هداف
ايران
##سلسل
despite
services
نظام
rose
##aker
##ara
nations
asked
الداخل
##ايب
##ban
vers
قرار
tre
##فاء
##هن
site
##هب
##طفال
across
ii
الرسم
##ced
هم
father
##iet
##avy
نهاية
اللجنة
gener
##orters
الترك
##ضمن
secretary
groups
comb
treat
largest
career
##ستان
الاخرى
##هود
change
وث
##راب
##ادية
مدير
ground
قل
goal
قص
arrest
term
##rod
sil
##راع
arri
##ميل
histor
##uk
defense
interv
tog
included
wee
##urg
drug
whose
bra
cert
issue
pan
students
##ids
kh
##جوم
##dle
##ne
##ico
arab
cam
مجال
الامريكية
fun
مستوى
جانب
germany
##وبر
الاميركية
oly
analy
ماي
##شاء
race
##عادة
راس
policy
nuc
هول
طلب
السن
constit
##صب
hu
##itive
player
##غط
##isl
##هورية
##وفر
لق
فع
served
##oph
##ination
عالم
بـ
الشركة
##اصمة
جل
##ولوج
قانون
##قرير
track
رم
##شرين
وصل
loss
##oun
السوري
pot
##امي
##ورا
خارج
##aces
##جهزة
ار
تعد
sell
together
england
enc
##قه
mill
##خول
الشع
weeks
hop
سوريا
##رييس
olymp
##ple
##edi
روس
gun
meas
الرو
##وضع
##ming
الاب
newsp
village
يون
using
##قرا
suff
##خر
##يمان
##uation
الخاص
الاير
2003
##ماع
pakistan
lang
##ike
##ــــــــ
located
تعالى
##leg
منهم
##ilar
division
exch
تك
launch
##بيع
سا
sales
صد
##دمات
mex
sun
وام
لدي
##wan
behind
##خاص
وليس
الجمعة
current
seen
##off
indian
مر
##irc
association
الاثنين
er
مشروع
cast
palestinian
##ength
pain
##bor
rail
##اجة
##rew
face
discuss
32
wall
##ضور
production
##umb
بالاضافة
effect
##ults
رقم
السيد
##yle
##king
islam
light
##ode
ident
##راءات
##ya
mart
ويع
##قق
لمن
##باط
##key
ثلاثة
##ورات
##fic
##ذك
يكن
الاسراييلي
##lim
بلغ
ministry
تحقيق
مرت
مه
رسول
للن
##ille
senior
position
cover
australia
##ows
كون
published
##ergy
فقال
pract
##oti
2001
nuclear
فلا
prices
حقوق
possible
radio
##ato
رغم
ساب
english
##ael
امري
candid
je
##yal
green
clos
workers
taking
الفريق
##igr
##ape
attacks
##yc
##راقي
الخميس
break
californ
اعلن
الديم
title
areas
action
العالمية
##وضح
journal
لس
yet
##خذ
sel
الاربعاء
هد
vote
بناء
live
نحن
mur
agreement
pos
##غيير
perform
##ney
esp
almost
foc
##ويات
outside
##اده
express
##ential
اكد
future
gave
سوف
##oo
george
تا
##ither
##رز
اثناء
similar
toward
يقوم
الـ
##na
بالع
##رص
circ
وتح
##ارع
bad
pen
المسي
education
coun
prem
بيت
##سكري
##ula
##ees
enough
poll
ris
david
باب
##هات
anti
cred
rate
separ
والخ
الصف
عق
##رعة
الانس
2002
nearly
assist
الاق
##olution
suggest
democratic
##omm
للس
minutes
mer
شع
والج
franc
##زام
المواطن
california
رد
##tt
legisl
حم
البن
اساس
average
باع
##empt
##طاء
بالنسبة
سيت
##كيل
cro
لنا
growth
##ined
ship
##لمان
##اسة
اضافة
##ob
##anch
33
والث
##بحث
##اهدة
plans
القوات
امير
negoti
hours
popular
##str
didn
حدث
##هرب
##forman
##ners
##فاوض
##لاة
prison
fav
authorities
##اعات
دم
particular
لذلك
shot
فرن
leading
فن
prim
hon
##احب
الروس
executive
##وني
opt
واق
demand
المسوول
promot
##جميع
soci
بينما
hospital
##لاب
36
##الك
##aps
##حيح
لـ
عنها
##ele
امر
contract
##atives
body
performan
bri
##خة
##uty
اقت
لانه
index
قوات
province
##ادت
fourth
middle
review
النها
neigh
mem
engine
##lic
##oon
afgh
وكل
الكويت
يعني
جنوب
vide
mos
respons
himself
الجزاير
able
hill
comput
المملكة
##ino
التف
##ايي
التق
analyst
job
علم
##iding
proper
##واج
##ومي
really
طب
الانتخابات
issues
##هار
private
البر
الدفاع
وض
زوج
كث
را
لاي
المصرية
فهو
##شا
خل
المحت
worked
الامم
japanese
حسن
نص
##eter
##ession
دين
higher
travel
##idge
playing
energy
wife
اللبناني
tex
السف
##ظة
coop
signed
رسم
wind
توا
grad
angel
والان
elections
ثلاث
korea
70
منا
ide
trying
##كترون
80
المزيد
lower
##ولي
##asing
المف
opposition
تقوم
ber
##راتيج
feel
قطاع
victory
summer
بات
cust
works
المراة
##جاج
##هير
الاعمال
لب
التس
africa
pros
الوس
##يتها
##زن
##طالب
weap
وكذلك
وتم
dro
wood
وسط
eth
الثلاثاء
langu
المالية
rout
والاست
emb
##ايما
price
##ething
وات
hous
african
دع
##حب
ارض
mater
##قتل
##راز
كذلك
soon
afghan
الاط
##den
watch
الاسبوع
##رامج
##iron
##قافة
particip
السنة
السبت
room
##يلي
mad
الحكم
##صور
الشباب
##وجود
حركة
##ford
السلطة
##eg
ني
##ارد
##ove
interview
shares
##وون
consum
continued
something
##طان
##rote
tai
kar
mov
dest
##وغ
##raft
likely
##sel
kil
##lant
lu
##irl
##هه
الحديث
di
phot
##ibility
##رنت
tv
طبي
ارب
##هاب
gas
##جار
عض
دي
hall
chall
deter
وبين
##50
cho
##field
##itz
famil
ليست
1998
sex
##واع
chairman
question
مساء
الجما
coast
paul
gar
immedi
examp
##والي
انهم
opened
things
##روج
الامارات
اطار
defe
tell
release
34
بلا
global
اليها
00
##انات
teach
featur
##ivid
##فال
resident
continue
##ocks
واشار
##ناصر
disp
wrote
الاميركي
jack
مز
مقابل
tradition
##pped
staff
bring
##جاح
mult
الاع
المال
الاغ
##hold
190
##ابت
##ريح
اصد
##مرار
##isc
sat
mother
لجنة
protest
كتب
avail
المشت
غزة
cop
problems
ويم
##amb
##اصيل
##ker
increase
##ميم
البلد
1996
بري
##ماد
##ناة
always
living
sem
##ماس
##ability
العب
لص
environ
rob
jew
الموضوع
الفترة
##akers
##stand
##ثم
flor
القدم
lou
tom
وحد
wa
##oming
##inated
##كات
الشرطة
mun
teams
بخ
##امات
kind
1999
##وكد
beat
ll
critic
جد
returned
cit
ينا
soldiers
اتفاق
efforts
miles
حيات
الرح
lear
يل
##ضايا
الالكترون
قب
estim
الذى
الفلسطيني
fif
تقديم
جامعة
##غيرة
##هاد
امت
ظل
docu
exchange
##ateg
##خصص
نتيجة
مغ
فترة
stra
الداخلية
taiwan
واكد
ath
##يزة
##ha
thom
حديث
appoin
##ولا
##ولات
##ude
closed
reform
##يص
##شق
تتم
saw
نع
##لات
nine
سواء
ريا
cris
الرس
##سر
individ
النبي
appeared
aud
300
liber
المعلومات
insp
وتن
##ناعة
##ounds
##جلة
stay
##mer
كافة
وين
الحزب
cle
organization
##طلع
الخلي
certain
atlant
شمال
متر
medical
sched
instead
المسلمين
hope
accept
reached
مشار
##ذر
##ena
##adem
يسم
hus
##كين
dan
amb
original
##ox
leav
ver
نسبة
بالف
##ceed
بالح
##ياب
الاسراييلية
البحث
تنظيم
37
القطاع
technology
adm
##itten
bene
للق
فتح
لتح
##back
##بكة
##افي
love
لاست
90
طا
##ams
border
##واد
38
شكل
الخام
بانه
environment
البي
مسا
للف
species
eu
##ago
britain
المعار
##uce
الشم
##men
التعاون
##ipl
يك
العراقي
op
material
described
training
##ipal
network
##راضي
diffic
هولاء
1994
بالا
الرب
محا
difficult
##انه
canada
الاوسط
##اله
نقطة
##ma
sect
reports
##قية
2019
العلاقات
eastern
hap
يعرف
que
tim
girl
##وروبي
signific
bi
##وها
تغ
prob
course
hy
available
##امية
اعادة
considered
واد
الاقتصادية
hear
##uced
لهذا
pred
##درسة
الساعة
provide
##read
various
decl
##ka
القاهرة
wanted
space
robert
involved
قتل
woman
created
serious
##val
fear
##icle
##etting
battle
quick
واص
وقالت
##وام
agreed
academ
##راهيم
bag
done
1997
##زي
attempt
##lished
##ugh
##عين
hor
القاد
princ
michael
عليهم
brown
الجل
##غب
##لين
قسم
44
##ps
القرار
##رته
problem
character
republican
capt
معه
texas
tourn
1995
study
unc
##بدو
##eck
influ
##ايد
##yr
اثر
james
bay
seek
cur
##uf
morn
والب
pack
##ورد
اللبنانية
established
joined
##ogn
الالم
##رفع
حاليا
جعل
doct
relig
معد
البيان
dail
ahead
buy
ach
uk
legal
span
محم
labor
society
حصل
##ades
خلف
واح
thous
يعمل
personal
مليار
اقل
الكتاب
running
australian
##cer
ten
fem
dollar
##روض
##icted
##عبة
thought
دار
violence
البريط
bow
شك
fa
دعم
euro
وط
##ذهب
why
42
الدم
صحيفة
access
##ster
##تمد
##ises
##ester
القران
لاب
pm
decided
يعد
فض
بداية
الثالث
winning
##ortun
دايما
والام
الاطفال
believe
روا
##باء
تر
##يري
نج
##فين
quot
##hib
##ذب
فوق
نشر
كانوا
roman
##ald
واذا
##uit
المل
##istic
daugh
happen
الاجتماعي
ital
ملا
##علن
manager
##زع
##تنا
tor
خاص
inn
results
تعرض
##itted
الموقع
بدون
##ify
daily
##elt
ended
mess
القدس
surv
prepar
hong
لله
muse
recently
كن
##حين
morning
واف
senate
produced
scored
conserv
##جاه
mcc
##ae
introd
##وتر
##كال
الادارة
##وفير
##نيا
nom
المث
recogn
coming
كثيرا
weapons
poor
جهة
##ounded
##mar
جما
##ونس
##فتت
sports
بالق
##وش
##ening
pur
mom
##راس
indic
خصوص
الاخر
ele
plant
اشهر
origin
video
obs
written
performance
pick
ضر
##قدر
wid
example
189
iraqi
crisis
du
##ريبا
##ecess
48
75
account
##برى
والك
اننا
السودان
حي
##عه
##تا
صاحب
brought
##imb
ill
مط
العسكرية
cath
kong
vice
عرف
39
rank
مبار
followed
construction
بالس
عمليات
ولد
الاوروبي
##ease
operations
##ari
##راءة
custom
constitution
##ware
lawy
وتش
شهد
##airs
##قاومة
##عام
يوجد
lif
اخبار
##cast
##فاظ
presidential
gra
احدى
رفض
cab
rather
stage
اعضاء
الوضع
##ological
management
espec
dipl
ul
##ضان
##ails
اعلنت
وظ
##ging
fish
card
veh
كال
##ract
##ياس
muslim
sea
conduct
##rel
##wood
##ender
especially
تنفيذ
##هتمام
coal
##ندق
##هي
fort
##iation
diplom
اللي
وغ
كاس
وهنا
الاتفاق
بام
السوق
65
نوف
exist
##xim
الطريق
ey
elected
المناطق
pow
royal
mic
بب
confir
41
البط
expect
newspaper
تحميل
modern
jose
comment
situation
opening
failed
الاجتماعية
##ites
وتت
republic
حكومة
investors
##وروبا
significant
الشهر
المرحلة
either
اصبح
schools
lib
رح
##اكل
الشركات
natur
trib
##ements
deg
temp
investment
العاصمة
heart
hund
remain
##ania
phys
يريد
fighting
allowed
##ona
cell
السورية
##تر
##شارك
style
currently
##ادق
##bc
##rs
شعب
anim
وار
الاخير
turned
رجل
الانترنت
##arian
der
try
حكم
ben
الرجل
##wa
##ims
data
حرب
تطبيق
##تد
fle
acqu
لمدة
movement
مساعدة
الاسلامي
language
##iec
##oor
##of
sam
corpor
مباراة
intell
يعتبر
##omet
الحي
independent
friends
carry
جزء
الفن
cases
معظم
ran
الحصول
events
##ta
ابراهيم
لف
mexico
push
مصادر
##عرض
##ـــ
friend
الحالي
##hood
families
pressure
##uses
زيادة
##he
واوضح
mission
##يرية
hundred
مباشرة
المر
finished
وهم
##ثمار
الجميع
سير
##berg
##ساب
justice
##اعر
##ki
##برز
rac
العن
55
##نايية
museum
##ظاهر
sad
esc
يمكنك
بهذا
النق
وكالة
لكم
##تيار
americans
##ريقيا
##جموع
##راح
deliver
##ذة
deep
ايج
##ria
trial
مصدر
##تك
الموتمر
القرن
##iff
obama
serb
regional
web
عز
ترت
##فتح
47
braz
المط
##ume
الجامعة
##يفا
اكتوبر
discover
الطب
##erve
majority
offer
للص
tournament
قدر
الهند
hun
##حو
اند
الطا
اسعار
الحدود
العملية
##la
الغربية
الجمهورية
البد
achie
##atory
draw
مختلفة
##كام
البرنامج
##زيون
##راجع
bos
successful
means
annual
corn
block
##داول
officer
سكس
evidence
المياه
budget
بذلك
للج
##خط
soft
##ilities
cele
فيلم
اللغة
تعمل
range
خم
ple
وبالت
asia
بلد
##ابه
##iment
##عاية
contribut
##الا
regular
##روب
alle
الواقع
بدات
competition
##sequ
ww
##ويا
43
##وبات
abd
##ريل
emerg
forward
بشان
التم
الاور
##اكيد
##عو
داع
makes
الكبير
##iger
1992
##يها
version
طالب
الدرا
##كب
looking
cas
aid
pac
leave
firm
##ويلة
عين
الوح
operation
واض
مسلسل
400
recover
##rupt
الامام
##زين
وانت
##يره
السعودي
scient
mac
##جرة
وصف
angeles
اطلاق
علا
spent
تكن
العاب
abs
##سام
اصل
##شفى
respect
celebr
cann
اه
54
البعض
ولي
اهمية
##ابي
188
showed
##aries
address
bir
##ville
laws
الامور
وعن
blood
mas
يول
remained
governor
fair
المغرب
الثقاف
كلمة
##ايه
##افية
##erous
##mark
##وسف
throughout
che
معا
الاه
##لبية
يو
روسيا
المشروع
scre
married
computer
للغ
scor
البيت
##ston
49
color
1993
الجانب
professional
لاعب
##نطن
needed
واج
transport
runs
mel
joint
charges
thing
##enced
البشر
includes
##to
##عاد
موك
getting
الاصل
وسايل
الحم
somet
blue
debut
تسم
##ories
shows
nar
ند
commerc
products
airport
صورة
##خلص
benef
نفسها
markets
magaz
46
##ients
fest
##قوق
النار
brazil
farm
mont
الاز
##down
##روس
##sw
سيكون
approach
institute
##band
italy
اصحاب
##عون
##لاع
ps
##يانة
god
helped
ينت
الدور
heavy
المسا
bond
product
##شل
brother
##lus
المقد
المباراة
ol
##رفض
entire
خدمة
trading
propos
كامل
والاج
comes
##vey
##ريا
تقل
target
اللاعب
egy
accused
السلطات
للاست
paris
##وبي
##gn
records
بث
bor
##kn
biggest
1991
##ارق
العراقية
خصوصا
confl
##olic
وفق
##جليز
الفرنسي
remains
reporters
##قرر
thousands
##asons
##غيل
##uled
الامريكي
##افحة
##rial
##انس
ren
associated
slow
mah
52
##تمبر
doing
بمن
الدع
##ريمة
وست
speed
##ترا
internet
كلم
florida
الحركة
##erson
قالت
بول
assemb
prevent
reason
الامنية
مرا
gro
وير
mix
وحت
##rain
##ufact
هيية
المية
##نيين
محت
المختلف
judge
guard
تماما
manufact
بنفس
##ension
##جية
search
مارس
##ريات
الجام
##اطق
##اا
italian
jer
cub
alex
سبيل
van
##iance
ارتفاع
دخل
##احة
النساء
##roy
finish
minor
لاح
##ba
fly
egypt
ومت
بنسبة
السب
وسي
science
organiz
اوروبا
smith
parties
رفع
compl
سبتمبر
##فاوضات
التواصل
درجة
##bi
##olf
movie
انواع
nothing
##10
الارهاب
ميل
حسين
##وحة
نتايج
بالد
arrested
pil
developed
##وين
سيد
richard
lack
doub
##روح
سكان
نوفمبر
##واس
demon
itself
doesn
natural
##reek
##craft
##اسي
above
##ique
probably
النو
box
lives
مشيرا
عليك
الديمقرا
رجال
frank
تز
افريقيا
الدست
forced
محد
##ification
##me
daughter
##يلات
##لاك
improve
##selves
hen
المحلية
www
##venue
وفقا
creat
قوله
effort
لج
bid
citiz
##burg
ens
النفط
##صالات
موقف
محمود
الفا
parts
المرت
الفنان
islamic
link
sound
قوة
mach
increased
##وصل
afghanistan
الموسم
themselves
surr
النظر
زيارة
##عتقد
انس
سجل
فانه
progress
rates
earth
##فية
##omp
العالمي
ec
neighbor
worth
##فه
commercial
186
##عال
struct
lin
موتمر
منتدى
size
محافظة
counter
related
opportun
القص
لانها
للام
الاحتلال
اليمن
##ca
champion
المز
طريقة
purch
##روط
norm
##han
tried
المنتخب
prior
يصل
self
protect
beginning
منظمة
عا
##iction
كي
1990
المحكمة
dig
سين
واع
##ريع
minute
growing
##itting
وغيرها
بيروت
##west
تركيا
##كرت
لهذه
sud
بغداد
واله
wild
founded
صوت
اللقاء
designed
##ris
bit
حجم
shoot
increasing
بز
programs
لقاء
##imate
القت
investigation
المجال
chic
نايب
##icles
##ريبة
مواقع
المطل
swe
ساعة
##سون
انتاج
مي
##يقة
الرييسية
البحر
مكت
thomas
asian
##body
eventually
قضية
الاقل
##wor
unit
مار
##ايع
فهي
فرنسا
inside
##خصوص
##raw
##reg
##شرات
##صى
بعدما
##ايزة
##ريك
مول
الماضية
crow
##ulf
بحسب
focus
upon
سف
##قلة
owned
##اند
raised
sometimes
كرة
##ثلة
##enth
رمضان
المختلفة
##11
الفر
واي
##while
الخبر
hur
##orney
##يلم
##uing
favor
##ador
earn
##ped
اخذ
aircraft
المك
##lined
immediately
believed
pun
##rugg
##za
##uan
##reme
officers
attorney
عبدالله
happ
وبال
athlet
noted
187
gaz
rap
الاقليم
نادي
consider
establish
##صلحة
مناطق
communic
المواطنين
lake
pitch
قطر
##اكم
##كذا
occup
income
dut
الشعر
##east
ولو
النص
حب
يقدم
المستقبل
اقتصاد
sides
لكرة
وحتى
strugg
تطوير
يناير
ملف
epis
سلام
request
لاف
يونيو
واشنطن
الهيية
##وانين
كثيرة
demonstr
تمت
longer
##قلت
##وجيه
aim
books
يجعل
##hd
cer
banks
terms
standard
الايام
##wide
beij
recorded
##ورت
وعند
##ولوجيا
bosn
##ano
##icket
##vert
##اليا
##هرجان
والغ
condition
strength
جهاز
##ناق
بالك
indones
53
##سلة
sure
provided
##زاب
beijing
الطاقة
شه
changes
ابناء
موج
العمر
residents
wil
الراي
caused
##ريعة
analysts
##ويد
spain
lee
الصحة
##ايلا
beg
##فى
##aj
الحر
grant
cooperation
gian
##ويس
الوصول
##راث
adding
باك
##طلاق
appointed
مشت
##ينية
##شاركة
ho
chann
brief
planned
##اسم
بهذه
##aded
المشاركة
deputy
##عيم
السابقة
تناول
##ناه
prosecut
louis
mary
parents
dow
الكريم
الخدمات
بهدف
الاخت
ديس
kilomet
عالية
scheduled
##سد
claimed
bat
relationship
##راتيجية
معلومات
وانا
المجموعة
spanish
alleged
تقرير
usually
immigr
fast
حمل
##tered
regard
particularly
chance
trip
yen
rule
date
issued
الصنا
expand
##isters
withd
شان
micro
##لفزيون
launched
##ych
##estic
سعر
اجتماع
الايراني
##انى
##aur
##ولى
ومح
صباح
francis
خالد
51
##uff
بالش
christian
##isions
nato
يتعلق
systems
جان
النواب
##مدينة
اولا
lay
gm
هاتف
munic
انف
بني
امكان
##oth
##arily
##فات
الاردن
industrial
حص
meth
touch
necess
meanwhile
chicago
دفع
64
تصل
##ua
swed
##edy
يذكر
##dom
formed
##قوم
offered
latest
changed
municipal
##تهاء
else
completed
عشرة
##ply
profit
ريال
rh
whole
باي
##isted
##صلة
توق
ضرورة
pict
##ومن
##ga
تعرف
##onse
intellig
##bers
تحدث
الاخبار
##خاذ
goals
wide
يغ
عص
##بهة
##encies
talk
قايمة
##uge
لكنه
magazine
georg
##itness
الدوري
bost
##اخذ
##ota
##وره
برامج
injured
charge
علينا
create
##aught
الاقتصادي
قط
المصدر
starting
##بلوما
traff
professor
scott
regul
المكان
model
الفرنسية
##يسي
##jected
credit
##egr
sup
تعتبر
square
##وفي
compared
المعارضة
train
##وزيع
قامت
لات
الموج
الشه
cat
الحب
##ونا
understand
authority
killing
الكهرب
spring
العسكري
56
##ضيف
شركات
canadian
displ
##راكز
ظهر
conditions
highest
مشاهدة
##ريحات
sand
cause
سوى
arrived
##inary
##ريض
source
##يبة
##aled
وانما
subst
وهذه
crim
##ties
القي
burn
formula
stad
اربعة
بحث
transfer
##ندوق
hotel
ربما
risk
النفس
boston
d8
fifth
safety
شرق
##ظار
##جاوز
calls
##inet
حياة
##ift
armed
اضاف
##iled
oh
boy
عش
bab
##اتهم
editor
ram
الاكثر
05
sources
##يسة
##oud
##جع
##cel
bird
الزرا
sov
value
potential
اختيار
##وقرا
##هله
whom
الكل
htt
تحمل
premier
##oid
95
اجراء
ليب
react
needs
##ندي
##رياض
58
olympic
اعداد
##30
ويمكن
##عمل
jones
penn
idea
والمت
wants
اهداف
مدى
drive
gradu
والمن
مفت
liter
الساد
الحوار
صالح
letter
freed
except
sant
##دون
paid
فهم
novel
double
charles
##anced
response
نصف
roll
fer
##ريس
rise
peter
##apers
subject
jobs
النس
قيمة
rules
adop
##نب
##ipped
passeng
##ارنة
##ius
مكتب
overall
##igned
التربية
##الغ
يوليو
zeal
##har
##ensus
##hi
speech
كار
##izing
religious
##وو
الازمة
##شات
patr
فح
disapp
وصول
طال
يبدو
matter
partners
##utions
150
##بيض
لتن
فمن
##بحت
جنيه
المادة
57
cannot
##ينات
سوق
##افع
الماء
paper
##ayed
نب
حز
traditional
##ارض
القب
حساب
autom
##ورك
leaving
korean
appar
يوسف
broadcast
##oke
anything
ضع
route
##ani
رسالة
##ket
experience
piec
خص
appeal
limited
word
leban
ملك
##ship
##امر
atlanta
strike
القط
object
##ada
القضية
democrats
سعيد
medic
document
بينهم
quickly
موسسة
kid
##واقف
##aging
اعلى
funds
اشت
challen
doz
dang
finally
dar
mail
العليا
طويلة
##قته
domestic
gall
انما
studies
مقر
mob
النايب
rang
مقد
##ctions
repe
##ado
##هج
تشرين
trou
hands
##مع
##ذج
rebels
passed
##ander
centre
proposed
ire
##واف
وعدم
##ذين
الفق
##اديم
spir
الوزير
مرحلة
affairs
##ولية
##واجه
online
forest
الصورة
##orm
bul
حوالي
##ny
شييا
surpr
incident
انح
مايو
carried
mostly
##apped
##ko
##ريدة
below
##her
##عاب
##agon
##سيق
ورد
virgin
iv
انك
illeg
property
##شد
يوما
##خرا
##oul
الملا
##ires
km
originally
فما
ruling
##اربة
قلب
تمكن
insur
stocks
البحرين
مهمة
الياب
التجارية
تحديد
electric
وانه
بالج
انشاء
takes
المقبلة
philipp
##صاص
تريد
المعت
وطن
politic
85
##رر
##ili
festival
stadium
##طور
collect
لعبة
practice
moving
chem
##يديو
student
##واعد
فرض
##غان
كيل
جو
العا
وراء
summit
محاولة
الرسمية
spending
الكبرى
معت
المواد
carol
الموسسات
كبيرا
##طاقة
costs
refuge
##ources
soviet
سعد
قناة
##ental
الثالثة
ابريل
type
reve
اين
##ابا
destroy
##سك
سورية
songs
martin
##فيف
لكي
الفلسطينيين
giving
cities
ويس
والاس
المض
قاد
flight
previously
mis
draft
placed
cents
##هادة
اية
coalition
ireland
وبالتالي
السيارات
الملف
##بيب
##anda
##asion
##مارسة
candidate
الها
activities
حدود
المفت
everything
moment
assembly
الاستاذ
سر
اون
قض
zealand
الخليج
##19
مباشر
section
amount
المخت
اصبحت
fans
nov
الاساسية
الكب
tun
additional
المنزل
dropped
حماس
fuel
الاجتماع
mayor
gard
##برة
##ورج
ult
##orary
##فاعل
ياتي
الانسانية
ko
عضو
unl
die
rom
bull
##ساد
##nic
##umn
lines
اسبوع
##ao
دراسة
العزيز
درا
##era
conflict
ها
علاقة
##nel
##where
فاذا
##ken
railway
explos
##quar
##ديثة
wing
trust
##قطع
انته
##رفين
يحدث
##elled
الاراضي
صلاح
الحلقة
fat
السياسة
سياسية
husband
beach
pacific
##hr
attract
hundreds
##طرة
mountain
##itory
##rian
wel
culture
features
##ream
weekend
الوزارة
الامين
##بنى
require
الطعام
##nam
agric
attention
##eless
rod
1989
عناصر
turkey
feet
##ناول
القضاء
fill
log
##فسير
نمو
finance
البرلمان
الرغم
cars
measures
squad
exhib
شبكة
##سطس
قايلا
figures
colon
الوسيط
الطفل
التابعة
frequ
مواجهة
##طوير
intelligence
estimated
الصلاة
##etic
##شاف
respond
mind
straight
##يانا
seat
complete
##شت
المنتدى
بحيث
os
ابت
##ips
medal
ali
##lad
williams
individual
sport
يمن
والتن
##hen
nav
figure
##alled
##علي
ordered
اعلان
jim
mu
complex
dl
سعود
required
##ola
jewish
##zy
ديسمبر
الوسط
ارد
agricult
viet
فرصة
تاثير
جمع
الجسم
يحمل
دمشق
##اير
primary
refl
##وخ
shop
voters
##هرت
ven
تغيير
dism
##any
weak
هدف
الانتاج
rat
66
apart
##da
تقول
##ابلة
##lands
يستطيع
##using
التعامل
##براير
bang
الثورة
##12
##واز
وحدة
منزل
crew
اغسطس
دبي
والل
##عامل
spot
advis
##ونه
##ظل
نز
الصور
captain
##رجع
والله
##غر
plays
##خرج
positive
##عزيز
##oles
negotiations
crime
archit
باعت
##عبير
##road
المرض
##ented
59
murder
800
تشكيل
surf
ابرز
sym
##بيت
##ودية
citizens
employees
spread
الجهاز
اثار
##acts
disease
الاشخاص
ready
gh
kept
##رشح
scr
##شاط
خمسة
questions
غال
refused
##بيه
directed
bob
##ette
method
separate
johnson
resc
محل
##علقة
بطولة
publish
كشف
##ini
الراب
##قص
كس
master
99
ير
vari
الشعبية
sens
felt
لغ
الجنوب
وجد
اسلام
ken
confirmed
فبراير
valley
الشخصية
text
مشكلة
theat
وقع
##ابر
بريط
vac
62
الجمعية
##سه
tas
tough
##قاد
قي
ونحن
homes
رضي
##ظمات
shut
deleg
كام
72
anc
bol
##ih
##ندا
ari
غرب
motor
##قبال
mand
الامة
الروا
الانجليز
phone
الزوج
02
بانها
##ريت
84
ايل
##وطن
##yan
##gar
extra
numbers
foundation
psych
store
لعب
##ذل
buildings
##ديو
##iles
اجهزة
معها
##pper
##uries
##ستر
sector
والط
rain
household
##قيقي
mut
اربع
nas
serve
##نبية
witness
crash
وهناك
lived
النوع
القيام
victims
بالل
bridge
اني
اوب
speaking
warned
wear
penal
bott
عباس
بدء
winner
ess
couple
##خصصة
catholic
encour
et
##bed
##icts
بقي
ينب
mir
degree
وقف
wat
ce
خير
المدير
places
انفس
active
##بين
##رتها
academy
##oned
67
films
brand
مرض
##ounts
متن
controll
words
sar
الابيض
كانون
equip
نيك
##شطة
النز
register
خلق
الجد
##كومة
الجاري
تنت
الهدف
التنمية
attended
##dam
التقل
##سلوب
##فاة
treatment
القوى
arts
ادى
tenn
رف
quoted
مترجم
الحكومية
مخت
impact
##امه
600
اعد
details
answ
##abor
المستوى
##احية
الدورة
ويب
##ارا
youth
unf
spr
arms
levels
claims
الحقيقة
بسي
طرف
##كير
##ريري
sense
للان
charged
برو
birth
##ita
##اسيس
##ider
##رايم
صار
صحيح
leadership
حماية
tan
عهد
المحلي
اير
لط
domin
حض
##war
ورب
pul
##eph
experts
##راحة
basket
افتت
##هديد
concerns
electron
dark
thus
bey
bell
chap
names
headquar
الاض
score
للغاية
palestinians
determin
قول
female
كلا
الست
consult
##ero
survey
بواس
##قيقية
##وجب
gaza
ok
##انيين
lt
gal
projects
88
##ez
09
##come
overse
الدراسة
replaced
##ذية
##مين
greater
الكاتب
writing
protection
channel
ros
historic
status
الرسمي
68
##اضي
افراد
fresh
stars
tem
accident
يحتاج
mort
فك
##صح
##ضيع
الحج
length
جميعا
attend
رج
نسب
jump
التجارة
mosc
الطرق
matches
صغيرة
##غال
az
listed
الاهلي
championships
someone
units
territory
##فو
مهم
perm
da
performed
يعيش
المسلحة
d9
ku
responsible
##orter
malays
فوز
writer
independence
لز
08
01
##يوب
##mad
نعم
connect
185
tow
الايط
دخول
كش
سبب
بينها
06
seed
1988
عمان
##ابط
##icks
##رامب
سيتم
الطلاب
adj
true
ethnic
##lav
od
بور
mr
مات
الشرقية
مسي
##ribution
broke
olympics
photograph
cash
تجاهله
bod
turk
seeking
##نه
القوة
قرب
07
ته
approved
بهم
خدمات
مان
holding
فكان
bed
يودي
coup
كنا
lie
##اكد
##سى
الصحية
الاسد
##ردد
##حديد
##oms
flow
equipment
والاد
حاول
قيام
##ضب
navy
وبح
kenn
crowd
afp
altern
ليت
فضلا
baghd
73
argent
المقاومة
seems
expressed
عاد
carl
dlrs
moscow
contest
revolution
القول
remaining
winter
الاخرين
boost
cerem
##arm
بيع
احدث
يمثل
supreme
##يال
##iro
موكدا
النادي
##يدية
pret
dog
##uals
introduced
##iple
لدينا
subsequ
##apt
امل
suppl
##uts
مال
awards
##اطر
ash
بواسطة
النت
nearby
##تهي
declined
##يده
##ously
##tained
ta
لماذا
din
##راقبة
##apore
سق
drop
##ste
خرج
##كلم
للبيع
اشار
##اره
##عته
##well
يعود
bure
##ordan
تعزيز
##fully
##تع
ولن
تحتاج
##بيوتر
diss
branch
session
cook
baghdad
التنظيم
http
plat
contact
baseball
huge
تونس
floor
عقب
اقامة
singapore
وو
بلاد
generally
المانيا
ways
spl
actually
نست
بمع
جمال
63
تقد
باستخدام
quality
احداث
اى
##ground
تسل
الدنيا
الثقافة
kilometers
اراد
يزيد
commander
##aud
04
##اصر
initi
مثلا
##erate
candidates
ولاية
vent
السم
تعلم
سيارة
occurr
العنف
##عمار
المنظمة
sev
##اعي
تعليم
ميد
##حرك
cabinet
##ندس
sale
damage
collection
البريطانية
الاوروبية
terrorism
الانتخ
silver
##رجمة
##ems
دقيقة
##ios
hung
الابت
76
marri
emergency
decades
توفير
عنوان
مناف
المتم
##odes
scene
##com
amp
##خدمة
خلالها
الالكتروني
row
bil
لاد
heav
82
لذا
##خم
##حول
الغرب
##ales
##lines
##وقات
وتد
cyc
recon
الني
يز
##ارير
التقرير
وجاء
operating
الرابع
kingdom
politics
تدخل
strateg
الحض
flag
##iy
تقع
bea
بنا
whe
المول
implement
السين
##uction
ful
نشاط
republicans
owners
##وزارة
ترامب
الاعلى
##امت
##ulated
entered
تنظيف
##كوين
##ustr
##حف
plane
##ندن
native
##ques
categ
##ura
##itation
فكرة
مساعد
settlement
challenge
اعتبر
lawyer
##طفى
##حديث
##gen
موعد
الكون
ساعات
everyone
era
victor
74
السكان
كلها
##rec
conservative
موسى
studio
twice
##ault
كا
##wards
kos
الاتصال
denied
housing
purs
goes
##وافق
##جمات
زمن
##قاطعة
rival
العودة
##عددة
الجزء
debt
insurance
المسيح
##فاض
الاجراءات
##غبة
##فيد
سه
الور
libr
##zz
basis
##يمن
heard
##15
السنوات
النقد
##iring
cd
##باق
للخ
exam
##gl
البنك
criminal
becoming
figh
##جين
wrong
alone
purp
الجنوبية
القلب
extrem
03
ويست
##عاء
ممن
الاحمر
architect
صنع
talib
لوك
77
خطة
الاجهزة
ومد
veter
fired
اور
##يلية
zone
##icide
اقليم
clean
الحس
francisco
ستكون
selling
مطل
recomm
القر
wasn
voice
داعش
jordan
##ايها
##asts
شار
الشريف
##fect
سبق
تلق
fal
filed
losing
دعا
cultural
bon
suc
النمو
communist
ممت
184
##ois
ابدا
تقريبا
##اشة
مرات
page
واث
وله
##وقت
suffered
initially
مجرد
الدعم
بطريقة
والمع
environmental
البلدين
integr
##itude
يط
simply
serving
المعد
beyond
النظ
##حافظة
##بال
بصورة
enj
##kyo
##essed
العلمية
منع
الكلام
memor
##house
##lor
retired
##eman
ice
stories
applic
##وسع
الخدمة
عرب
votes
##igan
##ols
والاخ
larg
العقل
##براء
obser
assistant
wounded
در
69
lic
##ديق
الفني
##هـ
الفكر
##قلال
جيدا
taliban
abb
باريس
declared
##شية
##rich
الموت
##سجيل
##وارد
قطع
##جيين
عيد
يزال
towards
جهود
المدني
المبار
الخل
episode
86
prec
supply
message
قن
##قتها
defend
census
flood
للمن
henry
ast
reserve
##خيص
##eld
علاج
necessary
awarded
terrorist
tokyo
##فاف
niger
suggested
houses
ray
مهما
measure
الحريري
يرت
##منى
restr
##board
older
الرحمن
كلية
##unt
##hl
المدرسة
عربية
طل
سلم
resources
spons
##اليات
zh
path
اليس
شباب
##صبح
استمرار
تصميم
appl
amid
injury
fellow
الاصلاح
والى
##hab
luc
روح
##atively
##ali
78
software
##جموعات
القديمة
##mon
teleph
kur
يبلغ
kr
مسلم
rural
headquarters
specific
تحرير
##لاحظ
doctor
sav
وذكر
التون
مقتل
illegal
perh
resol
##iences
##ersey
لاس
قرية
supporters
perhaps
##ipe
proposal
jackson
##ابقة
الروسية
ينبغي
جيد
largely
سلسلة
georgia
##inent
العلاقة
بالط
##قطاع
الزمن
الروسي
ministers
##داية
##eed
greek
seats
dutch
alliance
virginia
basketball
مكافحة
تمثل
يوميا
ليبيا
تض
التنفيذ
via
hopes
earned
ورييس
avoid
##ويض
gained
debate
slight
rub
##ule
nature
supported
anth
قيادة
featured
سياسة
عامة
##enty
calling
sites
##orp
kim
دوري
##حر
screen
##onym
##rovers
والاع
العلماء
##ملية
##rect
schol
سيارات
جورج
powerful
cru
##wr
achieve
منح
yards
##ضى
restaur
الحسين
##اهل
merc
قيم
فق
shown
رحم
##bur
mainly
##inn
سليمان
fix
اداء
advert
##udi
250
##ping
kick
الوحيد
opportunity
ممكن
##يتي
defeated
83
الكبيرة
الوحدة
الفنية
##طاق
##قاذ
commit
controvers
raise
##ript
mike
planning
##outh
##قايق
##ati
##رجات
##ثمر
الار
##ifying
larger
منتخب
##لالة
القاعدة
وتق
cox
##ailed
aftern
##ogue
محافظ
تجاه
افلام
لخ
##rid
##نون
##حدد
##ليب
compos
anal
موخرا
القيادة
##بول
الايرانية
##anged
fine
الحالية
الاقت
والات
غرفة
96
militants
الشمالية
سابق
##16
جون
الباح
برس
##woman
##رافق
عبارة
ماذا
sle
send
##ounding
جيدة
الاعضاء
##asc
cancer
##نيف
article
باعتبار
traffic
subs
##زاء
##ansas
الحال
knew
والسيا
repeated
initial
oppon
1986
ability
##طح
##istics
##هرة
haw
mention
##iced
الموسسة
tru
defin
المبا
appears
consumer
##وامل
urged
انط
##ala
##ocked
بتاريخ
بدلا
representatives
الكرة
نظرا
الجزيرة
ويل
##une
gone
شارك
jersey
يقع
نقاط
##مرة
ak
المواقع
##يتين
withdraw
الرق
bron
##ددا
##هيون
##aks
developing
gain
rene
بنت
ts
##usal
جمعية
stations
managed
المفاوضات
##iang
resolution
##ثمان
شخصية
المحافظة
consist
بالخ
ملايين
ذكرت
produce
##ارف
grew
##ding
artist
امريكا
عسكرية
##ruption
1987
##هدي
freedom
stone
المشكلة
critics
الدينية
##ovo
التحقيق
##ym
سياسي
سوال
afternoon
التحالف
الرجال
98
##ni
اعتبار
الانف
اسباب
ويقول
rising
ففي
compr
يعلم
prince
الكم
note
bish
تشكل
وخاصة
كيفية
##قاعد
يرى
كله
##نايي
كلام
##va
الديمقراطية
اتحاد
anyone
receive
##attle
ukrain
ib
irish
كاملة
##طى
democracy
##ناع
joseph
ton
1980
patients
شخصا
uns
remo
واما
alleg
famous
صدر
influence
critical
table
scot
الفيديو
اشخاص
ضرب
فس
choice
مدرسة
التركية
bah
##ويه
##اعد
normal
الوج
indonesia
##aped
dial
happened
capac
الحالة
الفيلم
ties
مقت
croat
temper
vehicles
محكمة
##كلفة
transl
خلا
لندن
door
قايد
تستخدم
الدقيقة
انخ
weather
ox
تسجيل
الاحداث
owner
##illa
##ici
قلت
##ناسبة
انحاء
columb
##ote
missing
tab
##itors
challeng
##amm
##رقام
##تون
النقل
اوا
حملة
القضايا
##ادثات
التاس
لكنها
enfor
ambass
الالكترونية
بلاده
retail
##know
اللح
##astic
identified
approxim
الموقف
1967
اظ
treas
القن
presence
العلوم
confidence
##حمل
##حث
##ناس
##قييم
function
##يله
##inh
earnings
bowl
spirit
بوش
طرح
المتحدث
##وضاع
seconds
pu
قم
خبر
مون
highway
الغذا
اجراءات
مبارك
تضم
للك
العلمي
businesses
##يذ
jac
وكيف
belong
##روة
smaller
appearance
امين
اطفال
stan
cold
pull
خمس
تظهر
الاخوان
##makers
##ديات
شراء
حضور
stated
معرفة
انني
sac
علاقات
jeff
advant
##حايا
##kes
highly
qa
فيديو
الحسن
ms
##ror
easy
قصة
##حقق
والر
تصريح
##ياد
يشكل
sir
العص
##ills
##الج
السبب
##iling
latin
فلم
entertain
الاطراف
##isation
امراة
##ils
تحول
رك
الخامس
decade
احب
حاجة
##هران
represented
gri
##ancy
حقيقة
suicide
##elling
تصريحات
##عليق
مقارنة
organizations
الطلب
##رتيب
الدستور
عليكم
##علام
elim
##عبد
لديه
presented
resist
ويش
##عتها
##فذ
1984
##واة
87
بلغت
directly
check
steel
ياس
النهايي
180
البشرية
الثان
مشاركة
acknow
مدريد
القل
اذار
carolina
نور
throw
الوف
ليلة
بنات
rush
##time
windows
##de
acknowled
المسوولين
producer
سبح
لتحقيق
standing
sister
estate
##نتين
streets
islands
شاهد
portug
فاز
##باك
##icit
الهاتف
وبر
والتعليم
السر
##iest
طول
##inals
الطبية
poland
العمليات
gulf
عربي
المصادر
hamas
تفاصيل
##sen
nick
storm
lord
fox
الخلا
shortly
inch
استعداد
##ylv
structure
##ريقية
##كيين
قوية
لين
worst
##طلقت
الفصل
النتايج
retire
##الث
##شن
فار
دورة
##ولين
ask
اتخاذ
الشمس
aimed
cz
##ective
##هاجم
وبعض
##افر
##idel
forec
vietnam
تزال
fred
reduce
defeat
61
الماية
ذاته
هام
اخرين
inflation
120
علما
mech
المدن
##oes
asp
##فعة
concerned
slo
meaning
##ja
البرامج
المحافظ
##ibly
revenue
telephone
الجهات
meant
1985
الباحث
الجوية
##بادل
##ايير
طف
##ايز
bought
ut
##نيات
losses
##ila
pra
ign
hab
##uted
drugs
نم
الساح
snow
rid
مشاكل
##mine
##omes
##زية
##oma
للحصول
activity
جه
ded
quite
لحقوق
ستة
##واريخ
catch
روية
يظهر
widely
تجاوز
التفاصيل
samp
dim
##كى
ring
لض
والز
##ياتي
جام
ومست
##mas
cra
##حه
sought
##ias
97
والار
##bre
عسكري
اجمل
##شى
mist
##ظف
belg
marriage
##لس
currency
cy
##iber
ارس
الكن
دايرة
##ylvania
artists
##يوم
ker
##oral
ارها
لام
##وذ
لعد
يساعد
rejected
##عرف
هن
save
succeed
singer
perman
ازمة
ruled
isn
interior
التركي
##وسسات
الرك
bern
evening
واخت
ثانية
##bon
##وعية
##ونها
responsibility
باد
customers
الاكبر
القادمة
##فيق
الديموقرا
1979
ty
opin
رش
wond
المتعلقة
musical
العلاج
##ros
liberal
معهم
turkish
##gu
واعت
عددا
##ضرورة
conclud
##فادة
مسل
guy
فرص
وايضا
ويد
cart
prepared
magn
1982
الصحي
virt
##اكمة
coord
nic
الحديثة
column
##has
الميل
##درات
غدا
tam
##ورها
occurred
مادة
البناء
##tr
##كندر
prize
saudi
وعندما
اسماء
##ويورك
dun
واحت
numerous
عما
girls
sixth
##وته
ly
المهم
##itzer
##oslav
rebel
بكر
للات
hearing
700
feature
##كلات
نن
contributed
follows
flu
legislation
saint
التحرير
البار
lad
##cher
المدارس
حفل
يحصل
تستطيع
الاسعار
الارت
قاعدة
رويت
الصغيرة
ظهور
فم
##غا
corporate
لفت
واضافت
construct
offers
غياب
حفظ
##كنولوجيا
##وبا
##جمة
معرض
توجد
مسالة
mile
##night
chec
brothers
bound
النب
penns
##سف
##جاب
happy
81
capacity
التخ
اعتقد
انتخابات
##جون
policies
الفوز
بالفعل
جماعة
اطلق
chemical
##فقة
الثلاثة
jul
الغاز
lebanon
termin
القايمة
عادة
الدخول
71
queen
الاستثمار
bodies
بوت
##ياز
ومنها
الرييسي
treaty
eg
يقل
##ategy
bear
79
الاسرة
اللازمة
##خدمات
يستخدم
partner
conducted
chen
##kin
carri
واسعة
##غانستان
الحقوق
الاعلان
جاءت
الرياضية
covered
وجل
##light
94
shooting
strategy
##واجهة
headed
##iana
يلت
embass
الواق
الالت
التعد
math
fully
##صاب
kids
##ادرات
##rison
تفسير
الطريقة
##ailand
weight
voc
fol
##اثير
seemed
تجربة
neighborhood
##loyment
backed
##هام
العين
carrying
combat
scen
الباب
neighb
thailand
discovered
##book
مدة
حر
لديها
شعر
rein
mechan
image
pennsylvania
بحق
##ساير
##شط
governments
##بيقات
ron
العرض
crimes
##ova
الصوت
behav
تدري
inspect
##وارع
البش
وصلت
الطبيعية
الرابعة
ba
##صرة
##صرف
oce
##غرب
advoc
securities
##يمين
الهجوم
eld
##هههه
ارج
حالات
الرقم
##rd
honor
guest
swiss
##arch
##fort
##حته
تغير
صناعة
##ليلا
شم
الشرعية
##ression
الداخ
حتي
البيية
مواطن
تث
advanced
es
طرق
1983
السفير
مصطفى
نظر
##ضاع
actor
##اليف
الوث
السادس
الشمال
vs
##kee
bureau
نجد
##ييات
moham
committed
seasons
القسم
suspected
willing
البيانات
##وانات
بريطانيا
للب
##ضايية
##اجر
newspapers
موض
iron
equal
bench
eye
ترتيب
##فز
تجد
heat
pounds
##الجة
pled
##adel
برم
##rey
مطار
scale
##aming
بالان
وتابع
واعتبر
الموجودة
##ونات
##جارة
مسب
##يقى
##stein
دليل
library
للعمل
العهد
الاهل
continues
بتن
##جتمع
yug
بشر
extended
fu
characters
##جاة
89
ford
yard
rug
البراز
التالي
##درس
##ثيل
approximately
upper
dismiss
##room
توجه
##لاج
spoke
انجاز
السيارة
اللهم
hou
##قين
lew
suit
##ذن
المسرح
ceremony
##itar
ensure
##works
الصد
location
stopped
documents
##gs
urban
المسجد
clash
provides
فصل
digital
1980s
نا
اجم
##جح
انق
المشترك
##غو
gets
##طط
##يتش
المقرر
تساعد
##ريقي
سيما
الاما
sexual
قضايا
ولكنه
tens
##hol
##اخر
الواحد
بعدها
##inger
ورا
حاج
والعمل
safe
destroyed
بينهما
giant
rally
dress
intended
##غلال
fash
##gets
##dy
والمد
standards
##يطان
اليون
##ياجات
male
##set
individuals
المركزي
anton
bes
القادم
technical
يجري
shr
relief
الرسول
92
dyn
وربما
driver
lawyers
البع
direction
المغربية
امكانية
بعيدا
معينة
الدراسات
ending
##سته
183
ايلول
##ذيب
ambassador
مباريات
selected
##سيم
crack
brig
فرانس
##وفا
gives
interests
na
##ملت
المكتب
##هوم
للتن
##بيين
##ella
##يمون
تاتي
##iny
looked
##فور
##ومنين
rapid
shan
اسمه
وخصوص
vehicle
##نوان
##فن
مستقبل
وبد
facilities
pit
##soft
الظروف
agent
الذهب
برا
اكدت
الالعاب
المتهم
المجا
نجاح
tight
combined
##كمال
##oe
southeast
المناسب
الاسواق
##وايد
والاجتما
برياسة
العمال
##iters
##يسى
saddam
بض
المتوسط
##علوم
صل
سيل
يجوز
تجعل
ترا
aband
optional
##chester
##ثمارات
البطولة
صع
ولذلك
1975
doctors
الفرد
yugoslav
الصيف
rough
##تح
panel
##ثال
setting
الصينية
daniel
plants
acting
tay
minim
##oses
فندق
كبار
صحة
##راجعة
positions
سلمان
##بايل
enem
نسخة
jean
plus
سابقا
بالص
##صاء
برج
##يى
sust
ممثل
عودة
charl
downt
faced
قمة
steve
rice
##ذاء
variety
القومي
وفى
joe
اللواء
##ockey
ليل
اقرا
##mo
dance
sri
proceed
##ربين
tests
المستخدم
##kins
نصر
teen
##مرت
##يزات
عديدة
failure
theatre
##ll
الجولة
controlled
cuts
##ناية
generation
##ويق
ohio
##سيا
convention
showing
struck
##تمال
##صدر
الحرية
الصهيون
entertainment
allowing
##icient
export
##جهات
gang
تجمع
بعضهم
##زوج
walk
surface
الاحزاب
##azz
اسيا
climate
ther
organized
passengers
سام
civilians
المشتركة
الكتب
##ography
symb
مصالح
##mond
actions
convers
communications
الليل
التقدم
las
##بان
jr
edition
exerc
المكت
نيويورك
للط
الاموال
##يسان
اصدار
الفور
القانونية
spect
##ماعيل
guar
yuan
soccer
##ien
القمة
captured
##ساهم
المغربي
##خال
كري
cow
يقت
hind
##18
السينما
complain
##action
rand
اوباما
اليهود
بسرعة
fashion
solid
volume
davis
##head
##صفات
1981
exact
انتخ
effective
effects
junior
basic
والاح
yan
penalty
كف
finals
platform
##che
صغير
الشارع
##ابيع
##emen
kosovo
شرح
code
uses
strip
معنى
ones
instru
regime
1990s
agencies
السلم
advantage
الاسلحة
representative
وترك
انتهاء
##14
goods
pair
الداخلي
يدخل
enjoy
federation
caught
صيانة
prosecutors
##ela
microsoft
الصراع
احيانا
اقول
##روفة
فب
طوال
##رمين
ny
الاتصالات
شبه
جلسة
##ysis
تبدا
alt
انتشار
##طالبة
اللعبة
threatened
audience
البداية
93
##ument
voted
scoring
مساحة
رو
سك
reasons
##واه
فلما
طن
malaysia
trail
providing
##aked
historical
الخامسة
الوك
maxim
czech
النووي
##دخل
physical
التعريف
orch
وخصوصا
##resp
فهذا
shel
يملك
loan
ariz
##داخل
barrel
الشعبي
accepted
ملعب
مشاريع
##lig
اموال
##زق
ترب
##دو
الفساد
##باه
الضفة
التلفزيون
resign
##واطن
الارب
الضغط
فات
العدل
stores
eag
بالغ
الذات
عاش
الاجنبية
bombing
##تمعات
عمرو
الفندق
insurg
corruption
والمست
قرر
##ظفين
بيد
المشاريع
##ributed
توفر
الطبيعي
جيش
dram
rog
ابطال
opposed
webs
syn
lev
rab
##icop
الممكن
وتج
الهد
بمدينة
remember
رايعة
شاء
المذك
مياه
التطبيق
الالمانية
نه
تعود
المري
انسان
##همية
spokeswoman
corner
حزيران
متم
##aya
prosp
##eping
worldwide
dub
##uated
ناحية
##هولة
diplomatic
boys
apparently
اذن
1974
##فاه
prompt
##قام
صفوف
##pan
reduced
sanctions
##owed
للامم
rescue
##umed
barb
distance
##acing
clar
agree
تحقق
institutions
غرف
yell
mexican
1976
ذاك
label
kir
السما
الخير
##رط
##pson
##afat
lose
cool
slightly
##wise
بنك
الرد
ويعت
hang
شن
مستشفى
bc
talking
unp
colomb
##يهم
حمد
iranian
الممت
والاقتصاد
outp
subsid
dur
cry
telec
1978
##ecution
##rig
scand
التالية
refugees
لاج
الابد
الاسباني
الثقافية
houston
يلي
##ذكرت
حياته
##قيام
andrew
benefits
1972
##تان
والاف
الحقيقي
ومش
les
bom
بالله
##ايح
chris
golf
##روعات
برش
تمن
##يطرة
##ictions
emer
الفرق
bosnia
##باع
ranked
ونت
##ario
##ched
##17
mixed
هكذا
##كرر
subur
##ece
واضحة
##ولايات
embassy
##inct
##iously
metal
driving
conver
##والى
##انع
لمع
removed
##كندرية
##ovic
arafat
brook
يسمح
الخلاف
##enez
اللاعبين
##لو
##ارقة
تحويل
السفر
##يكا
involve
##ateral
pretty
البلدان
edge
visited
بعيد
approval
adopted
guarant
المرة
انفسهم
chart
##ingu
collabor
##going
offensive
assistance
وعم
immediate
كلمات
السوال
faith
harv
##سوول
توزيع
playoff
perfect
##ادى
linked
studied
mol
reading
##lywood
يوكد
orders
##icated
divided
wales
helicop
sweden
##etts
السيطرة
##isf
الحديد
##inate
بعنوان
##outs
expans
استخدم
admitted
meters
##ulate
الارج
الجهود
لاع
المدنية
singles
##onia
none
tony
منتصف
##ييا
وزراء
الزواج
maybe
المعلم
heads
lob
نسمة
feed
races
##وزير
##ادم
therefore
narrow
rum
##aves
affected
lawmakers
##ينه
learn
content
الاوضاع
عبدالعزيز
##ighth
شديد
باج
خلاف
المرا
guer
1973
millions
##achus
##22
##ledge
##ونية
المتط
موسسات
meetings
شرك
##aka
السلاح
فرق
هى
اوس
جي
materials
اليد
airlines
##قف
gay
##13
اصلاح
constant
المساعد
sudan
واضح
jon
concent
advance
decline
المسل
المهمة
تواجه
glass
massive
accomp
marine
المركزية
ارسل
internal
الاسم
عصر
attacked
والتح
simple
offices
##زمات
عايل
yield
فور
shi
ويتم
الهلال
المثال
النهار
##فعت
سقوط
##صري
##phia
theory
##idae
polls
##جيع
signs
##لاقة
الصحفي
racing
##don
القدرة
deaths
بالب
returning
##ram
اخيرا
مكة
ped
marc
marked
##دمير
محطة
##طم
البريطاني
1970
الحمل
التاريخية
prin
machine
##ودا
الثنايية
##ابس
ships
مصلحة
تموز
##جير
المهندس
##ــــــــــــــــ
holds
compar
prominent
##تمي
وعدد
الاهتمام
##gers
التل
emot
michigan
المطلوب
##بلوماسية
theater
determined
الدعوة
nether
##كلف
##ديقة
stood
notes
criticism
thin
##كره
##ابين
##امنة
##وست
طهران
##xx
##izes
communities
بالمن
ocean
بتح
شرطة
بلدة
##ادلة
pier
لصالح
النهاية
وتس
sher
cricket
assets
##eing
الصناعية
picture
officially
##ront
##ادا
##rim
spend
##aling
##الحة
المناسبة
##وده
مجتمع
massachus
يعتقد
revealed
split
concentr
philadel
northwest
الانباء
regions
ترى
piece
monitor
تصف
##iot
util
##iano
وارت
الادارية
climb
تخل
##ira
الثقافي
##اعية
massachusetts
الصحيفة
##ثرة
لاول
##صي
استر
##fe
انع
facing
cham
جبل
وهل
خطوة
المتوقع
الاساس
protests
سان
contains
بالاس
forms
boat
memorial
lank
onto
surg
disappoin
لغة
task
naz
albert
comments
الجماعة
renew
##ثور
ancient
##هو
empire
##24
##غوط
philadelphia
##تيال
افغانستان
امريكي
يعت
الالماني
كوم
استطاع
النشاط
##roll
افتتاح
defence
dream
بالام
تبلغ
مرو
##يكية
limit
العدد
لاين
مرور
الارهابية
##osh
existing
لديهم
golden
الافضل
فيت
مسرح
hd
completely
تراجع
الاو
steps
syd
bin
abu
النات
ليف
permanent
##ucks
##زيل
##mann
personnel
الكهرباء
توقع
##ارى
لجميع
1968
alexander
warning
العالي
sab
powers
فعلا
##sa
##اليب
unable
engineering
syria
شهادة
settle
قراءة
##يغ
operated
ولما
الصحف
الفعل
tracks
anonym
##osph
aw
ori
##حاق
##رال
الحوث
corps
تشهد
بالتعاون
increasingly
يصبح
recovery
تشمل
بوك
leaves
core
بعضها
clearly
الجنسية
##رابل
focused
وقعت
relatively
مجلة
البرت
خطا
##يدات
aggress
اغلب
البا
exports
##onom
yellow
الطل
offering
##صيل
اولى
promised
اشكال
مجه
موق
يبدا
##ii
##صفة
subm
##ading
اللاجيين
ow
للانت
horse
##ذاك
##طنة
##iate
##more
faces
bh
##usted
bonds
parliamentary
institution
municipality
##iar
حوار
helping
ايار
multiple
التعليمية
ايجاد
143
##رفية
wealth
الايج
صلاة
محاول
argentina
##ياط
يمت
concept
يحب
الذه
يحاول
##usalem
garden
السياحة
واقع
##يفه
ell
drama
referred
##ube
certainly
euros
المشاكل
استش
jerusalem
##عله
##agn
اسماعيل
funding
##ذات
injuries
بعمل
christmas
##ياته
poet
الحاكم
hers
tend
مكون
الاشياء
##orated
##phy
الحفاظ
mobile
العقد
concert
promote
جرى
ديم
agents
للمرة
missed
netherlands
mp
البحرية
##حتها
##iami
##قلاب
legislative
العصر
الحاجة
interp
younger
guitar
##cy
نيسان
رياسة
السماء
arizona
senator
والسلام
##عاقد
tank
حدوث
consumers
يجد
fought
##burgh
wars
كول
opinion
transm
تبقى
1945
وهكذا
##oration
شهدت
اللون
prefer
صندوق
patri
solution
##25
##80
views
##ucky
الصحيح
waiting
camer
towns
مراكز
عثمان
hockey
##واجد
miami
contain
berlin
overseas
voting
الخض
newly
1970s
parish
الاصابة
الصحافة
maintain
##eas
bottom
يبقى
medicine
bishop
العدو
atlantic
baby
وتف
##طباء
فهل
couldn
ممارسة
شيخ
sydney
dozen
sequ
announcement
##اطي
hurt
ذه
قرارات
رام
rot
creating
الاسود
مزيد
الثقة
الهواء
loans
knowledge
اتخذ
1977
marsh
scotland
##ريحة
المعروف
kidn
دعوة
الحاج
موجود
##سارة
##40
متعددة
wish
رايع
ضبط
hits
civilian
مطلع
المالي
avenue
##aki
robin
ky
يخت
يتحدث
بالر
prisoners
صبا
##مه
temple
scientific
obv
##بنان
عشرات
##قاش
recru
صفحة
guil
##زز
symp
recording
elements
fields
التزام
acquired
##ليون
##ancing
fan
bosnian
sor
##وحيد
##my
##essions
##osoph
flat
benefit
journalists
لتش
decide
crown
الوجه
جايزة
administrative
weekly
الشاعر
يقال
greece
pad
العاملين
راى
##هدد
hay
eyes
##sl
kent
##oster
ايه
handed
لعام
innings
rome
البق
heavily
##zb
seventh
expansion
الجنس
##roc
1948
سبحانه
الصفحة
السويس
وظايف
تشغيل
كوريا
accounts
جذ
package
##bl
باص
شب
##صدق
##قيب
jur
imag
##واتف
lies
##شرق
الطايرة
sort
gather
##اديمية
الانتخابية
ثقاف
##ذكرة
##فعيل
stret
##unte
موسكو
ذهب
وتست
الرابط
##ضمام
columbia
founder
##ايت
لابد
mine
يسمى
dangerous
switzer
##خطيط
التغيير
flying
ultim
kansas
متابعة
raising
##apping
fab
اعرف
teacher
manufactur
possibility
غيره
ايدي
broken
##ويتر
commer
##هاج
ويح
الميد
##وهم
جميل
##وسطة
##onto
classic
speak
unless
مواد
توجيه
استن
الاردنية
تحسين
pope
han
pilot
برشل
بقوة
brad
النوم
##bury
##enses
unemp
دقايق
tie
fro
اقام
switch
وقبل
frame
قرا
##tery
قوى
الوكالة
الشاب
grade
begins
clubs
حلم
بعدم
الحالات
مالك
الغذايية
فالم
taxes
seg
العض
مستويات
holy
##ابد
dispute
##ivity
مهرجان
partnership
تسبب
hair
التك
edward
rare
1969
volunte
write
التشري
ضمان
lock
pin
صحي
##مالك
مناق
provinc
##ارته
condem
consecut
##ثناء
القديم
philosoph
learned
اهتمام
commissioner
اقيم
الكترون
banking
trouble
العقوبات
المومنين
الاساسي
قررت
الافريقية
##كتاب
answer
##طبيق
##inth
اعلام
neither
بالمية
##pri
##rad
trim
##لون
سيع
improved
mm
##ركان
مين
sky
##عن
##itarian
بالرياض
##iti
##وعي
##ندية
ضوء
ادم
الروم
واحدا
الرج
##pping
reaching
التض
ولل
marketing
jam
argued
افت
معدل
##och
scientists
subsequently
##صم
##wart
الذكر
انش
##empts
##عودة
متوسط
##اضر
اللبنانيين
1971
dv
agriculture
كاف
##awa
continuing
الامراض
kab
facility
enforc
missile
##نيع
lit
ايا
pent
##رويج
sets
criticized
##طاليا
fled
ارسال
##رجال
finding
##راكة
hurr
allies
حظ
polish
مضيفا
##لاط
بامكان
##واح
##لول
enterpr
##ivals
##eline
philippines
usa
مدرب
يه
لوكالة
دولية
##ears
allows
##ورين
ltd
الجمهور
##ارها
transform
venez
العظيم
ووضع
##eme
tu
واكثر
الاند
##زايد
##ضير
##entially
##osing
بطل
بيانات
##ores
تاسيس
convicted
tree
expert
تضمن
hurrican
semi
تداول
استراتيجية
ايها
gmt
blast
superv
نطاق
animals
attempts
جع
لاحد
hollywood
executives
تشير
لانت
tall
برشلونة
وبا
يفت
وفد
calc
mccain
##osen
kel
##نامج
دينار
tech
website
راف
consecutive
feat
emphas
الايطالي
proced
الحا
##agues
annivers
تحتوي
graph
taylor
##lers
جب
نو
##سباب
drew
##الق
sharp
drink
hyd
courts
##ذف
ابا
الاصد
المجالات
ووف
حما
cable
switzerland
المنتجات
عايلة
satell
knows
analysis
التحد
الترب
##akh
politician
##فسة
##kh
بقيادة
التجاري
##oking
keeping
gov
becomes
نفسي
provincial
عنهم
map
formal
difference
wins
##arks
التغ
assess
##يميا
##ologist
الحرارة
casual
19th
vess
closely
الايمان
حرية
الروح
المعا
farmers
مجالات
##ami
supporting
miller
jail
##لمات
troub
الاعلامي
جراء
##bit
الشوون
##رفي
الفنادق
looks
##عدام
forum
##ickets
guilty
رسمية
والمح
diam
شارع
سما
بلدية
يخرج
تعديل
kennedy
عزيز
pool
pulled
commerce
زيار
##idency
امنية
توقيع
رواية
declar
##ription
purpose
pap
رسميا
assault
lind
truck
democrat
اصابة
typically
تول
putting
السيدة
##illing
نيوز
القوانين
##قلب
toronto
والض
deficit
التوصل
##صيد
وذكرت
الصباح
anniversary
palace
تتعلق
determine
suspended
الاستراتيجية
اريد
##roit
اتصال
اللغ
accompan
##يدر
المشاهد
##رافية
قادة
ولكنها
منظ
##بطة
allegations
ورغم
##oring
وجدت
visitors
مقدم
تاج
ظروف
fleet
hotels
granted
المعنية
يض
##فيذي
castle
display
township
campus
ده
الغربي
السابع
ott
علماء
سع
ضم
##خمة
الاسباب
actress
حدثنا
ايف
##نبي
corporation
بدر
مجددا
##shire
##اريا
shir
##قوله
للو
supplies
kat
الجو
starts
سيف
haven
قريبا
##علان
خطر
notable
هجوم
مناسبة
transportation
اماكن
فج
##فاءة
قدرة
husse
comedy
substant
alternative
يضم
##ضعف
congressional
مبر
##يتهم
السير
زيد
ميش
##بلة
##can
بفضل
وفاة
##رابلس
حصلت
involving
كشفت
التنا
المرش
زم
latter
negative
northeast
##يما
وسوف
##oked
اشارة
venezuel
اقرب
##ويم
زال
##itan
##هاء
pover
##قامة
buying
صرح
dod
بالقرب
colorado
believes
الوفد
##erves
صفر
gore
falling
تعيين
فاي
##وقيت
electronic
##usion
cooper
coverage
الخطاب
andre
##ولوجية
اتجاه
stake
cuba
للمست
leon
alongside
gains
poverty
قليلا
easily
##win
والبر
طويل
entry
buff
element
لمش
##ghai
الاهداف
معل
bringing
العدالة
تعيش
خيار
مالية
##كنية
##واك
corresp
بحضور
عقل
scholars
ناس
detroit
الاشارة
contemp
drum
##ipping
حرص
nik
immigration
infant
##رافي
##خلق
ثابت
اخبر
المحم
##طلاع
##طبق
الحادث
creation
coc
correspond
وتص
replace
supposed
##وسيع
wait
الاشت
شروط
زين
ونا
holiday
retirement
##فير
الحملة
paint
وسب
##بيا
minority
matt
guerr
ثالث
##اغ
هـ
1964
##laim
ويف
الاسهم
النووية
رحمه
titles
الدي
مسوولية
يشعر
fears
optim
الرياسة
##abeth
##صايل
coff
brain
##vic
##جرد
tower
الجلسة
جزءا
المدر
zimb
##واري
عادل
rugby
orchest
wilson
connection
##وادث
appropri
labour
##رويد
سلاح
الجنة
قليلة
waters
amend
bail
##هوري
margin
sudden
##ora
النجاح
حقق
##قيقات
##فاهم
جمهورية
shots
principal
ذي
opera
حصول
decisions
الاردني
academic
اصيب
gross
الاستقرار
##ناها
lady
الرسالة
خليفة
##قلين
الكنيسة
المساعدة
بمناسبة
##نها
acts
##بارات
##يناف
##abwe
الاقليمية
الشكل
20th
توقف
##كرم
tennis
fighters
shanghai
1960
فرد
الضوء
##مدة
zimbabwe
فشل
dozens
تعب
santa
##راعة
النهايية
البخ
territor
الانجليزية
##رايب
##ذاب
primarily
اميركا
category
##ucc
##ذى
impress
اعلم
يحتوي
affect
consequ
aer
reforms
والعد
ثورة
##ورى
سنويا
نشرت
lewis
purchase
cells
arrang
##زيمة
طلاب
الده
الكرد
الكمبيوتر
اوضح
بنفسك
wouldn
##طلبات
prote
tack
pictures
##هداء
cease
طفل
باش
swim
التيار
shared
الترتيب
مدار
تخص
strategic
المقابل
dall
بحاجة
اليومية
comfort
reality
منتديات
aids
قصر
visiting
الملكي
##rees
##iant
ug
firms
writers
##حص
الخروج
##itals
لبعض
سقط
مجانا
roads
iii
models
imper
wonder
احترام
flights
تودي
howard
drawn
الوظ
كلما
الزيارة
tied
##zh
posted
guys
فية
receiving
##iful
##bod
رحلة
##cl
priest
الواقعة
merg
الثانوية
chron
##قدمة
نار
سلطة
learning
greg
##teen
thinking
##ساس
قواعد
wheel
##real
ends
ga
letters
doubt
mountains
dry
اراضي
لقب
موشر
demands
اصاب
ايت
##لاقا
promoted
##لاقات
unlike
truth
reven
jury
unus
الاعلامية
occasion
elev
واعلن
movies
naval
مير
speaker
satisf
villages
اتفاقية
##ugg
ناج
investigators
##اريو
رييسا
ورو
القاضي
الغرفة
##iscal
اسهم
179
المستشفى
appoint
##aine
memory
pir
المستشار
closer
الفرصة
transferred
الطايف
restaurant
##قاق
percentage
التابع
لسنة
surrounding
##حميل
المعرفة
راب
gon
downtown
pray
##water
المحد
العلام
الجامعات
##حاول
spark
سال
politicians
items
eliz
##ضون
الحمد
##hire
crude
expanded
##ازل
##enda
lux
##وسي
confident
ukraine
1960s
سلطان
رحل
respectively
اصدر
قليل
وتب
نجم
##لث
حقا
##ours
الكشف
اثنين
##غت
اعتقال
يدفع
بقيمة
الزيت
فضل
##صير
##حتاج
الجماهير
interested
surgery
يشت
##stone
صن
ضعف
شين
users
##ستاني
##ras
مفهوم
لحظة
trig
الطيران
##روات
##pts
insisted
raf
duty
الطبيب
الاية
بالض
التفكير
##زنة
##eland
فري
greatest
ذو
الدكت
احكام
airline
guns
##uous
stability
ميز
##بلوماسي
wire
اعط
possibly
pace
closing
animal
##200
profits
migr
السي
##زاز
بانت
جميلة
teachers
العايل
1965
##راقب
الشام
المصريين
thir
لون
ابنا
pattern
factory
##جري
severe
nfl
جديدا
stephen
install
كر
الطرف
##ji
معين
بذ
الاصلي
التدخل
الساحة
شوون
مقاطعة
wave
استاذ
##راغ
الفي
maria
gil
distribution
wrest
وحده
resistance
##rie
khan
تطور
om
sharehold
##طبخ
##وايية
التعبير
عمله
وبلغ
##ايفة
registered
statistics
القبض
##standing
##فيض
فخ
السفارة
##تام
nigeria
auto
cruc
##زو
balt
افكار
southwest
importance
tons
طايرة
الشان
shell
##uten
##ياتها
ضغط
التنفيذي
sentence
سورة
##bar
130
depend
سري
الدولار
ثاني
hussein
bbc
التداول
constitutional
باف
ultimately
كريم
opponents
جدة
sons
الانتق
appearances
##ns
austria
##وحات
السجن
abuse
دورا
twenty
turning
recognized
##وانب
رق
جاه
حلقة
##agan
assass
blamed
##abad
1966
##jan
##amin
tra
hoped
##coming
عال
##وفة
مواقف
eighth
disaster
##خبارات
عرفات
##شرطة
##لل
behavior
picked
madrid
infr
liver
التونسي
##يتم
##ربت
الشيء
ميات
##عليقات
وبن
friendly
شت
pieces
##reh
rig
applied
##ullah
##غار
الاسي
ظاهرة
تخرج
كيلوم
يث
chamber
الكامل
##الله
fraud
delay
balance
##مح
##كثر
muslims
##issions
secure
عاي
seattle
chosen
منصب
##pa
الاماكن
dj
filled
feeling
fundament
enforcement
##عوة
discl
swedish
شعار
egyptian
شباط
illin
نظم
ideas
abroad
الطالب
thanks
لمح
##fall
الشعوب
tourism
لمعا
serbs
cin
violent
ايد
hero
trees
experiment
org
سليم
مناسب
invasion
serbia
نقول
ايطاليا
enh
pip
##ema
##ويلا
كتابه
ونقل
marks
##ريبية
woods
entr
treasury
##صلت
ble
اليمنية
##رامة
الاعداد
ارقام
resort
موت
buried
##ـة
الكر
القايم
rebu
قدمت
##اوية
fbi
##سلطة
passing
الخيارات
reportedly
types
serves
##itage
sha
سبع
110
جودة
قالوا
##ached
والمش
dialogue
1962
fiscal
الابتد
النه
##يروس
##bel
##فتيش
بالكامل
hills
stands
deploy
cav
seized
pakistani
salt
delegation
التسجيل
رواه
ويجب
الرواية
phase
معركة
استعمال
العشرين
composed
##esters
طبيعة
##ilit
تويتر
##erved
testing
##شفيات
السوداني
##مم
المسوولية
competed
خلي
##ومه
blow
jews
traded
التدريب
experi
##ructure
##وضحت
reflect
##ناطق
invited
ومحمد
البيضاء
المحتلة
##vin
النتيجة
للتسجيل
##iat
الجمع
##oted
فعاليات
اقدم
##يريا
تاي
كمية
witnesses
isol
اتباع
indicated
تعت
manufacturing
##اهيل
transition
concluded
##abil
passenger
خارجية
creek
tob
##ables
البلا
وكيل
تهدف
manh
تسعى
اسبانيا
reaction
الرياضة
ross
##bridge
صدام
وهى
settled
spin
advertising
##عاة
##elson
الملكية
circum
شاب
venture
districts
اسرة
##وسيا
وطنية
##etary
kev
##ashed
illinois
ويق
##ابق
تعاون
العناصر
زعيم
compete
cn
proved
1963
الاحيان
##هلك
##قاطع
المهرجان
##شين
وعمل
##load
ومل
resulted
##ensity
الجبهة
مفا
##ikh
يواجه
مبلغ
اليابان
minnes
##قدام
160
harm
غالبا
##رسوم
سنت
زوجته
shah
العاملة
plot
researchers
140
##مارسات
bronze
absol
للتح
sr
industries
expectations
السودانية
سطح
dominated
النصر
alban
suffering
nich
المسلسل
##يوخ
damaged
toy
الصوم
الطف
زوجها
##صات
##poin
##كنت
الطرفين
سبعة
py
منك
bass
leads
##known
commitment
##aug
incorp
2nd
الملفات
solo
soldier
الدرجة
##acement
agricultural
banned
تصبح
اخرج
rating
توص
لمواجهة
مني
الغاء
هما
sin
delivered
##بيعة
##apse
compens
حقيقية
##يغة
واكدت
##23
البلدية
occupied
blair
##كور
##ucing
##athered
suspects
حوالى
falls
زيت
##طاقات
advent
##جابة
brian
fern
seeing
طبعا
وشدد
بموجب
seriously
##western
واوضحت
يلعب
غيرها
unknown
cutting
##نيك
عروض
minnesota
referring
oak
المتن
##60
##هلاك
تواصل
purchased
inspired
##افات
##رادة
الثامنة
warm
raid
المدرب
formerly
height
مشترك
tag
ثمة
ورش
المبادرة
frequently
اللعب
اعتماد
يضع
kl
rever
bright
exhibition
العايلة
maximum
contemporary
موسم
يبحث
المسالة
thai
##بري
صعيد
portion
tib
91
##mates
##ilton
حضر
theme
tort
##سليم
##فتاء
احتجاج
##arr
تعتمد
استد
laid
الحص
acknowledged
بمث
منصور
تمر
الامني
considering
option
presidency
exclus
ملت
punish
التقليدية
fel
##نوب
##olis
##شكل
cited
يعتمد
evac
##وند
mainland
##غرق
chain
الرياضي
وجهة
households
##fire
خطاب
الموارد
defensive
circuit
احياء
اليمني
herself
##fur
causing
البرو
بالاست
otherwise
dallas
ذوي
##كافحة
السياق
صرف
gor
النيابة
##كريم
discussed
جس
##خي
والاص
##افيين
moves
طرابلس
2020
##ladesh
يفعل
cos
treated
نقدم
bangladesh
القرارات
##ذار
الحصار
##تهما
تزيد
##رمى
معالجة
toll
المقت
النبات
constitu
electricity
نقص
quiet
تكت
1st
##greg
contained
elizabeth
##خلف
بيل
represents
defending
الافكار
elsewhere
clients
كتابة
graduated
apple
تقت
wine
نريد
القيم
حادث
achieved
##di
ثقافة
ودعا
واشارت
السياحية
chile
قصص
differences
asking
eat
compon
تخت
تور
##jo
الافريقي
extremely
لدعم
##الفة
صباحا
حلول
##ounced
contrast
pushed
destin
والانت
understanding
ناصر
veteran
driven
immigrants
الحقيقية
##weight
programme
lyn
مدن
forecast
roof
diego
##رقية
تملك
فانها
##iser
مطالب
consists
##ione
القراءة
الاداء
يعاني
##elle
kal
الرم
امور
##روري
featuring
تلا
##ito
تصوير
file
mentioned
escape
electoral
peaceke
##ادثة
الكلمة
كفر
struggle
الصعيد
والعالم
سمع
ward
درجات
ثان
##21
##راوح
وقوع
##ناك
##ـي
الراس
الموجود
brazilian
sentenced
##خلي
##eh
dal
##eda
##باحث
ديك
زايد
لنفس
سوء
المنش
بقية
المنظمات
max
توكد
stro
بكثير
##وقيع
الاثار
افاد
المرك
enemy
unemployment
الصغير
ظهرت
اكس
specif
pound
##ogle
##حدات
يطلق
ديف
inqu
##grade
obtained
مسيرة
تقارير
جسم
وعا
الفضاء
strongly
##icial
apply
hamp
illustr
unique
##يحة
##aire
عاصمة
drag
regiment
##unk
سود
tells
liqu
الاشترا
##ahu
repeatedly
##وريت
للرييس
watching
motion
عيسى
##enna
ياخذ
explosion
##ابرات
تبحث
##sk
الزراعة
kuwa
portr
منتجات
نزل
التجربة
النم
شكرا
destruction
##66
##enz
identity
وكما
membership
والتنمية
الكلمات
استقبل
vic
pav
arth
عط
عامل
بمثابة
نفذ
overs
قصيرة
abort
الاعتداء
##eastern
images
باقي
جانبه
allegedly
manchester
religion
المعرض
cler
نفسك
الاقصى
patrick
المرج
loyal
moon
##شاب
wake
upd
ابر
يدل
bou
الجنوبي
hat
medium
antonio
الاصول
ينتظر
##stan
##واني
secondary
باح
اقتصادية
changing
delivery
hole
تاكيد
dedicated
vast
##rical
##ناح
ساح
mall
مراحل
يقبل
##كليز
المحيط
##رطوم
##ima
centers
الجزايري
norway
##ظاهرات
grass
الاطلاق
##attan
فاج
genus
shape
ماء
قلوب
جزيرة
وبم
##واير
bac
kevin
yes
wearing
##mans
التقنية
النيل
نهايي
##uster
##بيعات
##owa
ابل
roles
hired
##ran
1956
رايت
networks
stick
الشهيد
everybody
##راوي
wolf
virus
منهما
values
vision
خلفية
##erb
##rant
begun
##وازن
مرك
##بس
##يبية
الجريمة
قريب
lam
complic
##27
milan
schedule
grown
##atically
##athan
representing
dealers
surprise
الزراعية
##اءة
##tle
##زت
roy
instruct
protesters
favorite
##ouri
murd
##illed
participated
للصح
##روي
لاحقا
bankrupt
options
gord
المطلوبة
الخطوة
rah
##وقة
correct
signing
يورو
1950
الشديد
##ينغ
satellite
vin
##ذاعة
sending
صاح
qaida
peak
فرع
connected
##iki
##بو
المدنيين
المكون
##ui
factor
##ello
trained
contracts
opportunities
skin
breaking
الرف
##وايز
assigned
beaut
الشاي
الموافق
##قاب
التراث
لديك
تسمح
christoph
زالت
paying
##alf
initiative
ابد
indeed
الوزن
##ياج
الة
judges
الشوط
##eted
المحا
activists
##berts
##فار
سلامة
خطوات
reference
recommend
teaching
##taining
##وسة
تجم
قيل
autonom
باخت
بالاع
remarks
overnight
##متع
##ثمرين
##rif
900
detained
موضحا
hosted
بمد
##dp
kash
مقات
amaz
##ining
prep
##itter
خيارات
links
lieuten
##ريه
touchdown
##osure
performances
باللغة
دفاع
stretch
taught
counsel
##aska
اليهم
وسم
arabia
##رفيه
maker
ay
whate
##لقى
##ori
1961
حرم
jazz
pc
التو
whatever
telling
اته
##صرى
##اااا
ولهذا
بشار
جرايم
##يزا
##ىء
الاطباء
##ماعة
diver
كلين
اسس
المقر
المسار
تبين
reviews
والاجتماعية
flo
##rupted
##افلة
targets
infrast
تسليم
scandal
لتم
producing
##طه
وجم
مجموع
الافراد
disappear
##عوك
google
gi
nam
literature
mrs
1958
انتهت
establishment
عون
نهر
favour
##اناة
اكتشاف
##oen
##هدا
سالم
تتضمن
حلب
ستت
الخصوص
##ماك
الهجرة
فيهم
فش
stuff
demanded
الالتزام
ذاتها
اسلحة
##بيان
##يمات
الاكت
وقدم
##atures
unif
##بلاد
##جوء
##اليد
bry
تحصل
rav
lanka
##alia
تصدر
imposed
anonymity
aren
ax
abc
##طرا
لعدم
rif
اقوى
moh
photos
هش
jes
sharon
تابعة
heritage
nep
ادت
الخرطوم
##agu
وادي
orange
formation
الاولم
##ooth
تابع
background
ولقد
##eller
الجهة
الاسكندرية
##ايص
وجعل
controversial
واسع
ليكون
##uits
output
متى
ic
الكتابة
اضافية
citing
اود
التاسع
emper
##pool
##otic
حف
محددة
انتها
تسي
wides
classes
elder
انخفاض
scottish
radical
اري
dismissed
الراحل
suspect
##iary
sugar
##وقوف
سلوك
اولاد
attempted
المباشر
1947
disney
queens
pointed
involvement
albums
احسن
railroad
hurricane
fit
اسلوب
##ازي
alco
##شيخ
maintained
الجودة
##راسات
الناطق
inaug
competitive
وبه
اثبت
synd
##يمي
rud
##kel
joining
محادثات
البرلم
##طاعم
##olas
مظ
انتهى
يتبع
##99
الجنود
##uls
انباء
الاسر
surviv
salv
horn
exactly
##utation
##una
1949
##entions
beating
اجمالي
winners
كرد
returns
العثور
##sey
bach
resigned
confirm
يشارك
الافلام
nba
##برنامج
بسهولة
مشتركة
لمجلس
merch
بتقديم
dir
اليك
earthqu
ونقلت
ومم
alf
petr
دست
ــ
1944
الشت
##زلة
adam
الخز
صدي
cards
بمنطقة
hoping
wang
خلاله
دير
عقود
##خف
مشارك
##ولد
يكت
nap
والتى
بمعنى
dvd
legislature
كهرب
نعرف
survived
للث
trop
soul
الاحوال
يقف
##كرا
يمنع
المصالح
constructed
خال
fame
males
##فتاح
##ean
للدولة
الخلف
##ollah
تي
كاب
scul
##ذاكرة
humanitarian
تبدو
sed
ابواب
##ounce
##سع
##ertain
نرى
ninth
concer
thro
desert
170
تنمية
البول
الزمالك
##ourne
palm
##حام
تعليق
stress
المقدمة
shiite
observ
ببعض
##ompl
ناش
القومية
##وجة
وبحسب
خفض
turns
##antly
لافتا
##oto
prove
##خفض
##ساطة
##eb
الاطار
##زه
فاعل
performing
القرية
القمر
معهد
##din
تصرف
واول
يشير
requires
##umes
الموظفين
للمشاركة
smart
الاقامة
participate
conce
جبهة
البريد
روم
قبول
trains
يقدر
##ندات
##ستها
##isa
manhattan
##قدير
ahmed
1959
الطلبة
juan
##apes
ranking
##جهود
surge
خليل
cem
skills
worse
##خيل
القناة
##ux
منازل
xinh
kaz
تعريف
walls
##ribute
##امرة
جرت
##rete
employment
امرا
السادسة
collapse
abandoned
adult
تدريب
allen
الديمقراطي
##acle
##gas
تامين
حج
##char
مسار
ملفات
kenya
سفر
tact
midfield
##stream
plain
الفار
##يجار
titled
tourists
تعامل
وخلال
لتقديم
winds
atm
##خين
##pread
belgium
computers
orth
القيمة
publicly
oblig
وليد
تحليل
بوجود
لاعادة
sweet
الته
##صالح
وسيلة
كبرى
يتطلب
##بك
nominated
prosecutor
يتعرض
explained
widespread
بخصوص
اعوام
##acks
metrop
affili
beautiful
تصد
directors
لمعاينة
حينما
عنده
journalist
وانها
بوابة
العملات
myan
ناف
apartment
##otten
الصالح
قوي
دارفور
powell
سرعة
athletes
ويعتبر
جاك
الكلية
chances
بالتاكيد
eric
reject
ثمن
##ثلا
franch
xinhua
الشبكة
الرض
blo
designated
انتظار
الالوان
degrees
الفقر
application
infrastructure
ينظر
encoun
##ادته
سيب
القصة
accompl
##طلاب
يحيى
الذهاب
استمر
dean
الصادر
simon
##ومين
فاس
param
الاثر
dor
واغ
##rah
كريست
العثم
موجودة
soph
التب
educational
مبادرة
##rog
boss
##كاء
لسان
fant
احدا
##26
ياسر
jet
التنفيذية
duke
الاتجاه
expensive
القايد
signal
lieutenant
myanmar
منف
ميت
يطلب
##صرح
التركيز
عالمية
princip
aver
المريض
تحديث
##cing
harry
تجري
##لاص
thor
الرش
##vere
operate
النور
##اصرة
السبع
bills
الحرة
جريدة
morgan
colombia
وتطوير
fisher
##zen
التشغيل
symbol
الصحراء
borders
المقال
frustr
##bing
resulting
##mir
##وتي
النجم
##iop
للجم
زي
ورح
التامين
##وسايل
لاص
##راما
prohib
neighboring
mental
ربع
cha
terrorists
##fol
consp
ادوات
ثقة
الرياسية
السعر
gathered
select
regarding
hyp
sitting
afford
fc
string
rick
##born
recall
صدور
##شرح
nationwide
للسي
planes
##do
تكر
guards
كمال
indonesian
ويكون
اسابيع
nbc
ورفع
inhab
350
instrument
سياق
##شب
خروج
مصنع
الصدر
yel
depos
stayed
multi
scar
giants
جريمة
##وضية
الصهيوني
praised
aged
باتجاه
choose
معنا
temporary
peaceful
convinc
grounds
لانهم
الخطة
المساعدات
ملاح
خبراء
painting
##emat
البالغ
الصناعة
الايت
الخص
tast
لر
remove
tibet
legend
ساهم
المتب
تبادل
abbas
##بدا
والاش
الشيع
السوريين
##قدة
تذكر
جوز
استع
ونظ
##inations
profile
croatia
حجر
gate
المعارض
المكر
##ناسب
victim
promotion
الحدث
ندعوك
roberts
yester
##ايط
و6
exercise
يسعى
والده
##worth
رسايل
ip
##قاهرة
ازالة
وحسب
mining
relatives
الدار
جنب
budd
##داة
حدد
##oli
camps
whit
125
organisation
الشمالي
يات
uncertain
##ربات
عف
الكاملة
يومين
مبدا
تقنية
writes
##ريج
##اخرة
عود
تسا
##يرها
drivers
يحقق
ودعم
comprom
خام
متنوعة
decre
window
خدم
كات
##فاضة
threats
اخي
اغنية
bath
scenes
alive
##oa
##oh
مفاوضات
antic
format
##35
##emic
birds
aviation
يرد
صحفي
##28
emperor
anderson
##شرت
hart
pentagon
##اوي
fernand
##وغان
rw
الادب
reserv
gab
فلسطينية
##ظبي
welf
producers
رويترز
estimates
##نز
##اديث
##حاث
aside
lag
##على
اقصى
زع
matters
الحماية
لرييس
ka
covers
جدول
entit
اصول
lap
التوجه
المدى
adopt
الاعتبار
regulations
emerged
parent
crucial
poly
rocket
##طورة
البنوك
##خوا
##وتيوب
conclus
remark
##feld
portugal
عج
نجوم
وسل
engaged
dick
واعادة
ولعل
crop
الاخضر
1952
تعاني
females
احتمال
1946
##anes
##airo
##ياهو
##كيم
##يرو
1957
belief
yesterday
الجمهوري
باراك
طيب
acquis
shif
##ملكة
برن
causes
عندي
فيصل
lebanese
الامل
المشاركين
extensive
رسمي
divers
قادرة
prol
لفترة
المرح
clark
reporter
##eva
للاطفال
##اوف
##li
welfare
##olitan
carlos
nomination
فكر
rooms
borrow
الغير
افادت
الصل
المقا
بقل
##ينيا
##ايهم
التوالي
carter
نموذج
##ماغ
plate
العالية
وتعد
militant
فحسب
يدعو
##بعد
distinct
راج
الظهر
الخبراء
لشركة
alan
roughly
الديموقراطية
عملا
##weg
putin
الاربعة
pes
reconst
battal
mutual
median
cloth
commonly
لمت
يمر
imposs
buck
ساحة
graduate
المشهد
persu
##endum
##mes
الانساني
clo
ونصف
innoc
جيل
الجزايرية
كوب
اطراف
يستحق
انتقل
لمد
1954
deals
##inces
وقام
يتمكن
shopping
mortg
بتص
challenges
cad
laugh
sculpt
الديني
باكستان
ماك
المنافسة
موظ
##pton
##ظى
statements
##قيم
rivals
فد
##ologies
تقبل
##een
اجزاء
##enko
si
gib
excell
ايمان
الشخصيات
##inder
##راها
proposals
jay
lowest
##ardo
##سلمين
السكر
قيد
popul
gordon
##اتم
نساء
بجانب
habit
ناد
##بلد
distingu
victoria
jav
universal
شرف
##قتين
empt
الكث
mohammed
kings
الفنانة
مصري
predicted
##قس
ticket
يتضمن
قطعة
العيد
توفي
العملاء
appe
وسجل
فهد
device
stem
الاستقلال
experienced
recalled
##ودها
مديرية
بشدة
مرش
languages
وذ
منش
##نات
##oz
##منة
gap
rear
الفكرة
publication
hans
profession
danger
frag
canc
oldest
##lah
cant
broadcasting
##ولاء
chick
##29
للجميع
بالعمل
reputation
recognition
لحماية
اجتماعية
vul
nice
peru
العمومية
الطبيعة
##يكة
suspic
اغتيال
الحفل
practices
##ايدة
##دريب
وابن
سيس
للحكومة
الاستفادة
responded
agenda
ريف
لحل
increases
surve
strikes
stressed
referendum
tang
مسجد
##وعا
##iner
bilateral
ryan
arrival
يخص
von
yugoslavia
fishing
قلق
innov
photo
##osis
ويج
##وايل
وضعت
##hran
##oir
pump
##اتل
الخطا
##هادات
discussions
رياض
استح
نقد
osc
ry
##itely
نجح
sciences
articles
##bell
##هنة
confront
الاثاث
بسيطة
##اضرة
dict
stim
##uri
الوحيدة
منس
فكل
رون
##70
غاية
178
scores
التحكم
مرف
تتبع
hospitals
##eds
##نج
درهم
##لاس
الطايرات
instance
passes
infantry
وبناء
##aro
stronger
وتقديم
طارق
الاهلية
##وضى
التاثير
##عارض
##bourne
##etr
دخلت
##وضيح
الفض
1941
physic
##equ
الضر
##sky
##tv
combination
1940
1942
اهتم
circumst
سابقة
##وابط
مود
monetary
trend
1955
##جنب
flash
##فاهيم
arena
copies
ثانيا
walked
##هى
انذاك
##usc
sum
##elli
##حلة
defined
chose
التصويت
##ingly
journey
##veland
guide
##اثر
1939
shift
nad
محلية
##lyn
السلطان
rio
cul
الانب
##ints
##ews
وزيرة
وكذا
stable
factors
ongoing
##وزع
##ommun
الصندوق
رغ
##عدل
recip
الترا
والاسلام
رغبة
##nest
raj
الجلد
iowa
yah
selection
##eness
kerry
appeals
ثمانية
العدوان
##حاولة
collected
tamp
##يء
dat
##يرك
ماد
وبدا
##ulty
withdrawal
القضايية
تحرك
تاخذ
تعني
consc
قري
liberation
عكس
cbs
استقبال
الاسيلة
الجبل
للز
laden
entering
تحاول
1953
لضمان
النفسية
chanc
unlik
specifically
rivers
finishing
harvard
equival
اوراق
جولة
##fri
##olved
##agen
الصيني
سمعت
limits
مشرو
يجمع
الحضور
للاس
unusual
الحكومي
##جهيز
##pass
##uma
patient
يوفر
minimum
worried
##يلا
ومنذ
##ريطة
##ality
تمويل
entirely
um
للاتحاد
##mont
sponsored
النصف
تختلف
papers
استغلال
سكانها
##bean
watched
اعطاء
الاداري
##تخب
الحيوانات
##لاه
ech
الادوية
interf
##erto
##45
rangers
اغلاق
##ika
كوك
properties
توف
المبارك
##hs
الباك
briefly
بالرغم
المخدرات
kurd
الشريعة
hut
##enders
forg
tehran
##نام
gallery
##سيما
باخ
عموما
التحت
وعبد
contributions
المطار
lawsuit
##وضة
atmosph
pledged
رعاية
aware
tries
اكل
struggling
##vi
اختلاف
وعرض
succeeded
المعم
حام
الوسطى
تلقى
methods
##هاجرين
strict
خادم
unlikely
الانظمة
hitting
##ايك
يهم
غد
##osa
مجانية
والعشرين
##زون
##كك
تقييم
##رشيح
sovere
hid
globe
انجل
بعث
يتوقع
##خبة
وعلي
خطيرة
بالذكر
quarterback
مشاهد
qualified
drove
impossible
بمحافظة
cleveland
testim
حلف
يشمل
الكهربايية
السيسي
documentary
معروف
مراقبة
meg
socialist
bombs
nag
##icate
##ديان
capture
كور
athletic
الازهر
##uate
هند
penins
sty
##alo
successfully
recovered
الكام
mouth
shock
magic
نوم
camera
الاجانب
script
الجميلة
بكم
dol
##نياهو
##kees
مسابقة
فرح
rar
expects
المعركة
شا
كلينتون
##ارضة
اطلقت
##break
اختبار
finds
ride
norweg
##غيرات
##يرون
المولف
investments
الحرمين
pas
التكنولوجيا
باحد
##rett
pitts
وظيفة
تعرضت
##برية
fixed
المصرى
ميشال
##aken
الجميل
residence
جعفر
سحب
##the
qualifying
لعمل
communication
payments
##heim
cod
الجنرال
##ضافة
اهالي
fewer
##ديال
discovery
advice
##حك
يكفي
tenness
ولان
1943
benchmark
carbon
##يور
hasn
starring
worker
انصار
اوليك
ahmad
الصعب
casualties
recession
حبيب
christopher
formally
##بعث
يعرض
تحالف
الخارجي
fundamental
بالمع
monthly
الشامل
occupation
استقرار
veget
rounds
episodes
المنتج
cambod
donald
renamed
الشروط
exped
##باين
##ضاة
##acco
consol
gray
عمره
netany
1000
واصبح
quant
انتخاب
يرغب
nurs
meter
موضع
مرح
austin
ye
الثامن
اللحظة
مبنى
الوجود
regularly
netanyahu
##سبوك
##ضال
الانشطة
الثق
اصلا
العنوان
##منت
الصادرة
وتط
provision
خطط
##raf
وقل
##وظ
##كنة
crossing
اوت
slam
بدعم
##واصلة
concrete
اخري
kam
##asty
discip
landing
occas
المجتمعات
##هوة
capable
versions
يشهد
##عودية
eval
تلفزيون
catal
ابوظبي
##ocol
matth
##ares
اواخر
قوانين
imperial
unch
بدور
kuwait
تضع
vlad
warner
السابعة
شعبية
السلع
familiar
بزيارة
الشرقي
الية
للمت
##acked
##oln
endors
##illery
الاطل
الفية
outstanding
invent
##rane
للبن
الممثل
sie
يتجاوز
النسخة
بدل
##iques
##روية
سمير
lect
طايرات
tennessee
فواد
bases
ايجابية
inches
torn
merger
يوثر
الاقليمي
collaps
الانجليزي
الاعتماد
bigger
applications
reun
وطالب
ترم
خز
فاط
الخطوط
انهاء
worry
السج
subsequent
بارت
القوم
مجموعات
اسواق
arsen
##vak
الانتهاء
##جت
venezuela
بلدان
اتهم
العراقيين
السلوك
##صا
المواقف
يكتب
سيدي
mitch
waste
##صت
المسيحية
تسلم
anticip
denmark
devices
##net
##ظات
cu
yang
الزعيم
لاخ
طبيعية
publishing
الوسايل
colonial
بطاقة
##oney
apprec
coastal
repair
participants
والذين
محاولات
yankees
نقوم
والثقاف
provinces
wer
الليبي
##ثق
رصد
##خصة
ورفض
devast
pear
##يهما
suggests
البخاري
pharm
المور
متك
تلت
phill
##inity
يريدون
##tsin
يعطي
الاشهر
##الته
significantly
bombings
unions
philippine
oppos
##بعاد
مستخدم
انتق
##umber
##44
false
##77
سعادة
جملة
السريع
sick
الند
مراجعة
failing
##لط
زاد
اصوات
الجماعات
tamil
jak
وفا
actual
yeltsin
الدوحة
مقابلة
الاسنان
هات
##cia
discussion
cape
musc
ذا
sees
anthony
النزاع
دوما
الاخلاق
##عوا
##حان
التنسيق
protected
##نتها
##وسوف
المجموعات
##كاب
الماضى
##كتابة
اللجوء
welcome
tail
الاعتراف
الاصوات
منص
ازاء
##mate
##df
barri
kashmir
الشيطان
fiction
ومس
ربط
الشهداء
fruit
tig
##rest
##tering
التحتية
tensions
colleagues
##no
شينخوا
dynam
accompanied
##vent
ولفت
واز
انظمة
والبح
##قها
مدارس
الدراسي
##wich
##away
الجيل
hunt
تكوين
gates
الصيد
arthur
شرط
nat
##uh
الدستورية
الاستخبارات
fighter
اوضاع
ادنى
harris
architecture
انظر
fallen
moderate
talent
chel
carib
##كسر
dole
تهديد
inquir
تاس
بوضع
tobacco
agreements
الوعي
##bro
بمشاركة
managing
##eto
raw
الجغ
##ارين
portugues
diamond
compreh
indiana
cancel
1950s
vocal
serbian
underst
البشرة
دونالد
للمد
distributed
##عدد
واخيرا
outr
helicopter
الذكية
##oard
threw
والتعاون
outl
المجاورة
va
gonz
الشهير
sid
المحافظات
بمست
##inating
الجهاد
اشد
الشيعة
##وسسة
قضاء
heading
syrian
ski
obst
coffee
المواضيع
##gb
effectively
ballot
entitled
التخلص
الملاب
بجروح
astron
الليلة
هج
سيناء
الروية
##يبه
مطعم
نظيره
اجت
tropical
التطور
##whel
##ports
economist
التمويل
##جلات
داود
containing
حرف
مربع
##lar
المتح
##33
لعل
لتكون
الكا
يترك
اسراييلية
maryland
##tha
القتل
kah
المفا
exceed
بحر
cemet
ark
earthquake
بتش
##وولة
القنوات
cemetery
يدرك
الاستر
ضحايا
emerging
sleep
employed
##عها
للض
amendment
reign
desire
الامكان
فتاة
adults
صعوبة
lor
التهديد
gary
##keeper
##فاقات
oklah
التصميم
notice
المنازل
traders
ethiop
العاش
مدر
المحادثات
الايطالية
الاسراييليين
##ommunic
##واطنين
الحبيب
تعا
##يطة
lane
اردوغان
norwegian
##الها
للوصول
التخطيط
reporting
linc
folk
appropriate
lift
##كيك
##sea
mans
واجه
lav
##شستر
عنا
بقدر
gamb
البتر
israelis
يدي
ابلغ
والتش
ادخل
باول
اخرون
##osevic
واقت
لمس
handle
extension
adviser
طالبان
والتق
هامش
##rit
##سيط
العيش
##ses
##قالة
divor
accur
##فرت
اعمار
brid
المهنية
القتال
jane
تردد
##cont
restrictions
##ture
الياس
لار
الاستثمارات
diplomats
hors
مقدمة
مور
18th
##lan
deployed
طبيعي
اسلامية
shall
prest
امراض
##سمى
locations
المصن
worlds
engineer
1951
converted
landsc
typical
استراليا
stewart
controls
footballer
cia
walking
brigade
فورا
ترح
milosevic
dramatic
racial
يختلف
الامتح
للمش
##point
missouri
الاولي
##arta
sang
مند
shad
##صين
orle
missiles
اليمين
phoen
احتياجات
يصدر
شديدة
excess
oklahoma
للشعب
تاريخية
175
المعنى
resolve
laur
jets
وتعالى
##iah
governing
ivan
اتم
والتم
fier
##ولون
imports
الاسماء
روساء
dinner
##تة
اشرف
سهل
overwhel
intention
delayed
الخوف
portuguese
مستح
لاغ
المعهد
myself
tiny
peninsula
استراتيج
boeing
وغيرهم
توثر
nelson
المقدسة
##ظيمة
فنحن
healthy
regarded
الشك
stepped
resume
gran
##لندا
فكيف
explain
admir
essential
ont
نتنياهو
كرم
##نتي
semif
جول
reduction
سهم
churches
عاص
##الون
الاولية
singh
قوم
lunch
جهته
شانه
opposite
مستشار
futures
تشت
athens
##واي
للر
preparing
وحول
العبد
وتخ
10th
grab
targeted
الميز
##قش
يمتلك
باستمرار
metropolitan
اسرع
المرور
##dd
راش
الجوي
##هدية
##sters
حا
الاوراق
resignation
##look
##imore
pione
gam
sustain
الموصل
participation
البيع
##قراطية
فول
existence
خطوط
عدا
تبر
##uz
unity
##ياف
sharing
##ستير
brew
denver
patrol
لمست
gene
##ياح
dre
يهدف
باله
vel
founding
بغير
سياسات
hezb
مرس
فين
التوتر
temperature
الجانبين
فريقه
ceo
barr
واخذ
welcom
تعلن
البور
easier
الملابس
enth
occur
##exp
artillery
الحجم
orleans
استمرت
##يزيا
testimony
controversy
reserves
insist
##ـن
phen
hugh
والسل
ملم
رضا
السويد
installed
##ager
pushing
prepare
##طنا
كيلو
لتنفيذ
الفلس
##itable
##place
moore
ناي
apparent
الخيار
النقاط
تيم
##ادها
ملابس
dee
drawing
substit
شير
##ياسي
حافظ
نكون
identify
دام
weigh
##ربون
عزل
uc
##ml
neut
nut
underground
الدفع
##box
سجن
الدايرة
discrim
knee
striker
##شفت
القذا
##iri
partly
ذكره
##vo
الشعور
علامة
dougl
pod
##ربا
الانكليز
vital
شف
scheme
##regon
الربيع
##oning
##encing
hell
ri
بدوره
illness
##ads
قنوات
dealing
خاض
مرتين
breath
ليع
circumstances
صنعاء
التحديات
hond
separat
المستمر
وليست
هون
زيارته
ناق
##طلح
weapon
الملت
اسفل
liv
nobody
promise
اميركي
meat
##ete
deadly
hip
prelim
بالتن
##طنبول
بجامعة
الاسبانية
remote
equity
الحجر
##برت
virtually
ردا
قبيل
المعروفة
اجواء
serge
clashes
vig
يشار
##play
ورقة
##isan
يوف
البقاء
clay
والرياض
مقعد
pittsburgh
carrier
##oline
runner
notably
equivalent
##imir
ساعد
##awi
##بطولة
##antic
boom
##ناقشة
##ياسة
liquid
##بور
##caa
behalf
##die
ليلا
يتمتع
تستمر
علمية
واعل
والاقتصادية
hamilton
normally
squadron
##90
manufacturers
بصفة
الاجم
##طيات
tested
##ules
##ويين
شقق
الشوارع
pregn
##ماذج
stream
romania
tribun
السوف
##قوب
المطر
visits
jenn
shareholders
##omin
العظم
المشرو
##رنسا
masters
هشام
والمل
##صفح
##وقعة
والجم
kelly
zero
actors
كتبت
التقى
##igen
orchestra
المرضى
thick
centuries
chip
hud
aboard
happens
مليارات
pages
forb
associate
##oured
اقر
وبذلك
##zer
gop
covering
sox
por
تمكنت
للمح
furn
##fast
زوجة
##قوا
جوجل
atom
انفجار
lincoln
alger
معدات
roger
##ابير
cord
تقدير
##illas
التونسية
elig
مواصلة
##قان
fm
lyr
oregon
usual
المهدي
وقتل
##وووو
الملعب
##odox
extend
##راعات
adapt
لوحة
وهما
##وكس
deadline
inher
المثل
entrance
chapter
العش
##وطة
##فيفة
1936
الاستخدام
questioned
##eding
motiv
butter
صحافي
angry
لايحة
بضرورة
demanding
الخلايا
حسابات
والاب
وتعتبر
barack
وسن
قس
للايجار
pleas
wu
##لاميذ
سياسيا
الزمان
##ويف
joy
abdul
##000
claiming
economics
knock
trillion
conven
شانها
تدور
##لاين
alcohol
revolutionary
universities
##يقية
قبر
studios
الواحدة
##ودان
thompson
صفقة
lith
اجتماعات
rook
انطلاق
reinfor
مصير
##يشيات
walter
freder
##فاح
##اردن
##orate
##iveness
الناحية
competing
##وفية
hezbollah
اللقب
لاسباب
baltimore
cuban
cher
ni
وحدات
bankruptcy
بعده
##ommod
تفعيل
accus
##car
حذ
الالاف
##dr
stanley
نواب
denn
##part
بزيادة
اخراج
اسيلة
الهم
humans
##هدت
وحل
مميزة
awa
الاميركيين
القطري
phoenix
##ظاهرة
المناخ
backing
requirements
owns
##بوط
علوم
oxford
gathering
معي
##ـا
الليبية
موافقة
absence
chancell
##رحى
besides
liverpool
narr
ورس
risks
##oded
license
substantial
priority
القطاعات
##abled
لمنع
جنيف
berg
##حون
##75
feder
عالميا
hiv
##غالي
popularity
وتعزيز
وزيادة
accommod
راح
الموسيقى
legit
فاع
##icking
مستمرة
##icut
حكوم
عبيد
##pe
التطورات
زار
gill
##life
وتحدث
##ternal
نوعية
الهي
depth
تواجد
كونه
##yer
tiger
بيوت
الرسايل
a7
المحر
triple
اتصالات
سبا
soil
الصرف
charter
defender
مناقشة
##طعمة
##abe
accel
tourist
##طيل
sensitive
hosts
صحية
بنحو
والتص
وفيما
interim
sail
prompted
##fa
للاد
تتميز
##دوز
الهول
##باس
ncaa
الاهم
interact
cargo
وتقدم
الربع
المنورة
ارهابية
مسافة
##vis
الدايم
اساسية
abortion
لست
امريكية
دايم
ale
باتت
وبما
فارس
##rys
ساع
مقاومة
##yth
caribbean
managers
##iments
##قبة
يعلن
والاحت
##وعات
القيامة
صديق
صعبة
وثيقة
walker
يحدد
steam
نك
robinson
تشعر
allied
lod
improvement
كندا
روما
الشخصي
تجارة
bund
diet
الطويل
viewers
مغل
1920
##فرد
telecommunic
barcel
aggressive
exclud
nepal
streak
كه
محيط
الاحكام
وها
jason
dates
philip
##iliation
##ربه
classical
جنود
##kar
والعراق
attending
delta
lands
gear
##فرقة
الطيب
##asser
abdullah
colonel
listen
estimate
##esis
rodrig
##لاعب
راسه
الكوم
طالما
dish
الهجمات
programming
departure
البرازيل
الفاعل
##iders
تدعم
creative
يقولون
highlight
pure
حري
للاخ
فاست
verd
##avez
mud
commonwe
##lying
105
metres
plastic
complained
##wal
conservation
فجر
##هلة
تنظم
hug
سيتي
rated
##دل
والموسسات
##otyp
وصح
الاحتفال
##idelines
التحقيقات
المقدس
fee
##هية
فيل
wings
##agre
##pay
تركيب
##وفيق
للعام
لتص
diagn
عجز
hub
درس
##رجي
##ماج
الفقه
بالطبع
فنية
وكم
والمس
mississ
##uations
aired
intense
##طول
commonwealth
1938
التخصص
vacc
الحكومات
اصدق
hispan
broadc
##asp
chavez
لوزارة
annually
##ايش
##وبين
##bul
3rd
maur
ank
##مات
##48
لتطوير
jesus
investigating
حديثة
##رمان
##ثار
##onsin
وجميع
manner
obviously
الحشرات
الهر
لمعرفة
##رنا
المباريات
التجمع
الوحدات
##نافس
##مني
##anna
##هان
والبي
دولارا
مكتبة
##urray
gren
literary
وافق
هنالك
hungary
شامل
##what
encourage
wisc
التجم
deeply
##لالات
observers
##ski
preliminary
andy
الذاتية
recommended
cot
##iller
تدفع
الرعاية
##apolis
##ربط
عبدالرح
carp
هيل
philosophy
speculation
رجلا
ولت
myst
##یة
الانسحاب
faculty
الوظايف
jumped
nur
السياسات
ronald
##ls
##صية
مستمر
كسارة
predict
المختصة
##aux
مواليد
kentucky
delegates
##state
اعرب
dave
neighbour
improving
الماس
الحلول
ادخال
douglas
طويلا
كاتب
الارش
arabic
صفحات
shield
assert
compensation
والتع
عضوا
##pc
somewhat
clock
احدهم
##صورة
alert
encouraged
connecticut
قاعة
monitoring
custody
melbourne
franchise
rall
سد
stamp
مريم
barcelona
تتجاوز
1918
montreal
هار
البو
تهم
المنظ
ownership
##مييز
opponent
inning
duties
للتنمية
المباشرة
هر
bapt
wisconsin
الرقابة
المرتبة
الهوية
هجمات
##ثلي
ارتفع
سباق
الاتفاقية
##eded
declaration
تقدر
المراه
portra
replacement
الجرايم
##سيل
vowed
##mouth
ورق
##uez
بالات
##ارتها
ختام
المستح
overt
holl
حسبما
desper
employee
ontario
المومن
situated
stages
##يفي
بنفسه
صنا
المخابرات
spiritual
##igar
وتحد
تخصص
202
لحزب
حينها
متف
##اتذة
coaches
جهد
مجا
shore
sara
يمارس
singing
##oria
calm
##enh
traveling
##estyle
##وزي
fees
##حى
حن
وتكون
نسم
faster
##agers
kan
veterans
شاملة
الشرك
##جو
سانت
جلال
##بدء
واضحا
consolid
الغد
يرفض
بالانت
القليلة
extreme
##باكات
ليرة
ابتداء
الانجاز
الناتج
اكتشف
سراح
قرارا
accounting
interviews
##ippi
بقوله
visual
الاخوة
err
خض
طرد
flew
##je
ترجمة
##اييات
surprised
##aco
##الغة
cycle
الاحياء
بحلول
boats
battalion
جابر
machines
لقي
hydro
صم
trucks
bog
وطني
##بز
##عاف
blocked
dna
سويس
النيابية
##رضى
بطر
وطلب
استخدامها
##burn
rapidly
counties
القرى
aqu
successor
للقوات
vik
##دران
##باعة
##ista
##قون
alab
بتع
الظاهرة
density
nazi
##انك
لاسراييل
النفسي
planet
smooth
suddenly
unfortun
##وتا
##ابعت
ally
مجمع
تصنيف
trophy
adjust
##beat
الملي
turnover
الميلاد
neur
insurgents
##etta
danish
circle
المسلمون
warn
##واحي
الدخل
upset
وتحت
الفتاة
قادر
الكبار
landed
gym
##بقى
anch
wy
اسامة
القاري
bart
##maker
editorial
سيطرة
##rell
اقرار
midfielder
تعداد
فلسطيني
تلم
المراكز
intellect
##met
citizen
ووا
##بعوث
##تمرات
##xi
doors
اساسي
الهواتف
دراسات
##ded
عت
jar
dies
educated
seoul
##yang
حامل
والمسا
ages
مثلما
restore
فانت
المعل
العوامل
peters
الذاتي
##ازة
طبية
اساسا
اعظم
sharply
يذهب
finland
لاش
وعليه
hs
تري
##لاغ
برميل
الجه
##ولوجي
تنتهي
التصوير
للاش
##يسر
المخرج
خان
##جازة
تعم
louisiana
bruce
مراسل
chancellor
ترغب
parall
جماهير
##jev
##ographic
##يراد
fax
neck
informed
السماح
لاحظ
الاستراتيج
##لقي
##سيك
ranging
comic
رفيق
##طرابات
##سو
الكيميا
شمس
هاش
الانتقال
احلام
معسكر
استعادة
surrounded
militia
رمز
outcome
##etime
tanks
ارى
orthodox
عراق
للبر
engines
fate
ثبت
cypr
relative
القصر
المتظاهر
meets
البنية
الغرف
يرج
tickets
crush
بالقاهرة
moroc
cycl
جير
بوتين
تمتلك
complaints
وتحقيق
لاخت
السوداء
التقارير
haz
pig
العروض
الحمراء
unclear
helps
flowers
ذكرى
العلامة
لنقل
والتج
##تمكن
مخالف
##under
##anny
##ناد
ويا
inner
##apy
##جيب
territories
ment
مارك
preced
عامين
المذكورة
##rence
الشهيرة
##adi
neighbors
pel
الناخب
arc
##رارا
medals
يعبر
residential
routes
jiang
فهناك
وتقول
مستقلة
للحزب
beaten
فص
##ركم
مذكرة
tigers
والنا
comprehensive
شاشة
##bec
بالمدينة
فوايد
ونشر
لتع
##نيها
##اديق
talked
ranks
##ishing
##كاس
##ologists
handling
noting
مشيرة
والامن
زمان
المستوطن
انتقال
اسطنبول
الابح
armen
وقيل
يتكون
ferr
المواجهة
benj
##طين
survivors
restaurants
الشريفين
الاذاعة
فاطمة
غالبية
lig
حيال
##eder
شريك
vulner
supports
واسراييل
مخل
enthus
اصدرت
amate
broadway
الاستع
الخطوات
appointment
الفرص
##ريان
promoting
1937
جمهور
تميز
blues
المالكي
بمش
mississippi
morris
persons
لث
broader
organis
mi
بجميع
arsenal
canal
العادية
تشارك
##utely
تام
بيك
واخر
الواضح
##سس
يطالب
campbell
رحمة
لحم
ranch
indians
##يتا
انسانية
judicial
electronics
##cr
الحروب
دو
التمييز
jess
##attered
##rov
1930
بعين
barrels
اغت
delhi
##ثى
البابا
murray
وحين
unchanged
تستهدف
deport
conte
postp
لاننا
العايلات
halt
##kers
القادة
reducing
courses
##atri
austrian
يشبه
ske
وتك
حسني
##شاريع
##جام
واحمد
principles
اجمع
تجديد
revenues
##illo
condemned
shaped
ot
##iffs
##nie
emotional
ease
طبقا
vert
ratings
الغذاء
structures
واهم
##بيات
اظهرت
bak
كافية
trials
moral
##ريكا
التعرف
مانشستر
##icing
enterprises
examples
firing
blind
##وفرة
الجمال
تقف
savings
princess
ووفقا
##يشة
parks
intercept
greens
##aga
protein
mahm
pilots
pursue
بكين
funeral
حقي
gent
client
twin
معتبرا
diplomat
سريع
لمكافحة
simpson
الضحايا
stal
متح
القطرية
##نس
بوس
عايشة
##ذان
##رتب
نجا
capit
##oleum
hawai
thousand
unh
معدلات
pock
كتلة
imprison
شخصيا
شو
modest
يهود
cyprus
الكويتية
passage
يده
strengthen
##uments
##ussels
##icul
سريعة
playoffs
عشرين
prix
نوعا
فرا
dil
convent
##55
عوامل
commissioned
لبناء
بمح
مترا
traveled
affair
كميات
principle
nomine
الارهابي
arrive
انسحاب
brun
اميركية
##ضيق
فيسبوك
التاسعة
التاريخي
تلعب
تجارية
الارقام
dogs
##شرون
##iciency
جلب
##عبية
##افل
فريد
iraqis
##pro
يومي
للاسف
الجاه
tribunal
ووزير
puerto
تمد
والمه
غضون
##arsh
interpret
للجنة
divisions
خاط
##قدار
الرسوم
والولايات
لاجراء
والجن
تتمتع
الخمس
الكرام
##كوم
proud
11th
##لكم
##edral
sight
##dale
##ردين
operates
توسيع
بيية
observed
purposes
sho
influenced
alabama
mini
larry
الوار
##رور
حاس
الانفاق
chir
rib
قتلوا
عرفت
##aver
##رجم
enroll
##omen
قيمتها
قانونية
outbreak
fried
##atar
sunni
##lining
الشاشة
سيط
print
يستمر
mines
judg
النجوم
enjoyed
البعث
1900
##asy
هدفا
وصرح
##dog
##oons
##داقة
celt
cm
بالاش
طه
تسوية
elite
والو
fifa
##عمة
##chi
انب
##ارم
##epers
birthday
##غييرات
ted
ويه
paintings
surn
avo
recognize
compromise
ووصف
technologies
daughters
bands
guarantee
المستثمرين
benjamin
نظرة
laboratory
حقيقي
باذن
##iable
المرافق
التفاوض
vienna
##ثمارية
يمكننا
عس
adams
edwards
النج
tampa
الفايدة
يدعم
offense
يسبب
vladimir
القريب
plun
تايم
جيم
ports
commod
prospect
frequent
يعانون
manage
explo
اعترف
اعتبارا
doubles
هادي
السنوي
##organ
تتحدث
سهلة
mathemat
envoy
couples
المحيطة
##iture
الفكرية
funded
blame
welcomed
السياسيين
قابل
telegr
انتم
ايقاف
slowly
ابعد
maced
خطورة
##ركية
composite
detention
ومصر
##رحت
المتخصصة
barry
atmosphere
crashed
functions
##agement
feels
الاندية
الطبقة
عملها
سوري
المخل
attached
يكونوا
واجب
البوس
##شيط
stun
reconc
mes
##ولان
ويز
يفضل
implic
##ربول
fo
قصد
mit
صاد
الاطلسي
يرجع
الخطر
seeded
يود
حرارة
لتعزيز
استث
hide
bitter
grey
وصولا
سبل
motors
painted
sounds
##stit
كنيسة
graham
annan
اعتداء
اسود
نقلت
##ياسية
##ضمون
رييسة
mortgage
empty
دعت
بالاح
##رياء
تدمير
detailed
منكم
makers
bot
العاشرة
الامطار
subsc
extent
qaeda
collapsed
etc
وغيره
argument
المستهلك
expression
rebuild
##ocese
mosque
poetry
##ws
الولاية
السد
##براط
##ipei
##zi
##وضوح
سجلت
اضع
designer
لال
للار
1919
nash
طعام
flex
نسخ
detect
battles
roots
##موح
تسب
##amo
ht
وياتي
الامانة
anne
البرلمانية
الكويتي
brut
سات
عظيم
الذاكرة
survive
الساحل
exception
السمو
الاستمرار
البدء
الاخبارية
##friend
سج
##كيلة
الحقايق
المذكور
حصريا
techniques
billboard
##anium
anger
البيض
معك
ايم
gif
cla
revol
منظومة
##وهات
الخبرة
عوض
اللذين
للجيش
كو
الانقلاب
taipei
introduction
وجهه
convinced
implementation
يعملون
مبت
جا
eb
broker
شارون
جنس
المستخدمين
##غام
الفيس
لاكثر
baron
##athy
prosecution
##وايا
developments
sessions
البشير
المرشحين
##aria
##خاء
troubled
فلن
##abilities
منافسات
massac
بالماية
يتميز
ديفيد
bun
اليابانية
restored
صراع
kitch
trem
##يديا
خبرة
قرن
اداة
##روا
قياس
passion
ويبدو
يرفع
الاحتجاج
superior
كونها
سيم
##ogen
لاجل
##olo
17th
swimming
requested
##فرة
عدن
بفعل
##جلد
russell
##يرته
الرايعة
##ـــــ
archae
shoulder
utah
شخصيات
اثاث
1917
##rick
milk
economists
bout
threatening
smoke
charity
الود
##تهى
objects
shops
renewed
الموافقة
##جها
المرشح
ادرك
storage
pic
اختار
##قض
التجارب
urg
cs
ـــــــــــــــــ
عامر
الاكاديمية
customs
settlements
بذل
القدر
ويك
reluct
النصوص
تراج
للقيام
##ocated
##راحات
viewed
lifted
التطبيقات
راشد
compound
اقيمت
beauty
oscar
لتلك
margar
للبحث
بقا
acquisition
surprising
التحليل
##ache
aides
القس
spoken
وول
buddh
##gor
luis
##esc
##onic
مدا
المتاحة
الجارية
brussels
deliber
baker
inhabit
rarely
عنصر
وبت
auction
الافغ
جين
الصادق
##ضلات
12th
telecommunications
##ذير
##وتها
ومنهم
حمام
##يمنة
belgian
جسد
ابعاد
arn
نستطيع
##laimed
بعب
غز
trick
saved
الاطعمة
الضرايب
bloc
اتصل
guine
tools
blocks
1929
الهندسة
##وتمر
##رقة
metro
اطلع
depression
##mmy
الاوس
##بنية
تحدد
والثاني
غريب
بتهمة
الذكرى
##ighter
elabor
##حنة
والبحث
السرطان
vat
prosper
stol
##van
##فف
الحيوية
فليس
القانوني
wright
العقود
##انغ
presc
بالقول
cigar
بنظام
الرحيم
unders
describes
##hem
الجدد
##حكم
مذه
bloom
messages
gasoline
##ياغة
trump
##aza
brick
يوتيوب
##فاد
fold
embr
tap
politically
lists
القلق
الدهون
defended
##repr
باعمال
##اميم
badly
بسيط
تفعل
knight
ابنه
بالز
تفت
بجودة
##anges
العملة
ارباح
cass
burned
واخرى
وراى
##oping
influential
المكرمة
المسابقة
صلة
ضربة
cambridge
ordinary
الخلق
للمراة
البرازيلي
بعيدة
missions
##حصل
bru
albanian
wedding
##ريضة
swing
تطبيقات
clothes
firef
المعتقلين
financing
تحكم
congo
inspectors
المستقلة
الاجابة
زواج
##خلة
طبيب
ميك
وتوفير
وبي
ترد
مالي
forcing
وحدها
##ايتد
1935
please
cnn
اصر
flav
اشياء
guests
المسيحيين
بدءا
حجز
proof
studying
##فيز
campaigns
bachel
moments
error
depending
الكيان
شقيق
صاروخ
1933
##ibilities
tribal
submar
خرجت
بانهم
فانا
والدي
##oly
التدري
الثابت
سيدة
celebrated
##غن
lawrence
للاحت
##نق
##جاهات
##عديد
مصرية
خساير
حدة
المشكلات
##وتين
##ci
jerry
امتداد
للدفاع
مجاني
demol
اشارت
curt
صدق
العامل
سفير
الرايع
md
الابحاث
177
##enson
chelsea
mainten
mb
user
النفطية
interesting
احدهما
##وجي
##سكس
تمام
الاختلاف
contribution
عقدت
authors
شرعية
##يثاق
jacques
##inding
البصرة
ملحو
اليهودية
نظرية
كذا
منطق
detain
quebec
unn
تيار
longest
aspects
الوقود
غضب
hunting
alph
aj
والسياسية
منط
101
مسعود
cathedral
و3
450
الفضايية
ضخمة
upcoming
البلدة
المهاجرين
predecess
لتس
الفاي
لوضع
والخدمات
##oca
tunnel
senators
الشهادة
مفتوحة
conspir
piano
الدكتورة
bullet
خش
detail
dh
لموقع
الوثايق
##ضت
حكومية
دولي
monument
خس
stir
وسا
راسها
toler
والاتحاد
solar
##writer
payment
maintenance
##قار
##67
##san
##omy
معارض
engineers
##يفية
يتيح
تاليف
##ظا
المحامي
beer
hampshire
##bish
sony
##aa
quit
wet
معلم
adap
packed
4th
ارتفعت
##فتها
##umin
الثانى
قمت
تجنب
الديموقراطي
mug
##روحة
بفوز
رفضت
cous
theor
investigate
##رامية
الابتدايية
kurdish
انزل
الدراسية
musicians
غاز
مخيم
الاجواء
mitchell
يلتقي
اتفق
finn
acres
disord
coordin
licens
وكشف
##illy
##برات
والاستقرار
gift
struggled
المحاكم
mistake
beef
sod
حوله
renov
رص
lyrics
brooklyn
ramp
ابيه
##قران
inquiry
kee
انهيار
considerable
findings
nest
ads
المبلغ
##رياسة
guang
وعلم
lah
الموقت
مميز
ودول
twel
حديثه
اوق
yemen
clothing
undert
dise
يفهم
1914
##تجات
##خفاض
enrich
محطات
النهضة
روى
consensus
harbor
suspension
steady
jama
فاننا
attributed
السرعة
audio
##agh
طراز
فرقة
attracted
صفة
vessel
refugee
شريف
1934
عبدالرحمن
amateur
الخليل
liu
holes
fulf
traditionally
tong
تتطلب
executed
الاستش
##aze
##اييا
##وايم
lem
##ycle
##ظن
##يخ
##حوا
##fit
##acher
##يفون
الثم
الاشتراكي
##orrow
hect
##ساتين
valu
##acent
16th
categories
terminal
eliminated
foster
فقدان
download
المسيحي
للمجلس
يسوع
homeland
##kov
##iere
الدولى
sentiment
##eneg
sah
فهذه
هوية
##رسة
والاعلام
السجون
جهات
ja
mounted
جندي
طلبات
اخذت
قيادات
##ركي
movements
benn
permission
investigations
gunmen
باغ
consumption
الاصلية
chase
copy
friendship
files
عراقي
##عالجة
##94
السلف
resemb
##غرس
منز
##ometer
القوي
ابيب
مرشح
115
reconstruction
obtain
loved
tone
##estine
definitely
المستد
التر
submitted
ملام
رجب
متط
##نازل
عمال
اعراض
drinking
علامات
##ماش
##omer
potentially
##قدس
السني
##68
للمر
المادية
الثدي
##شدد
legs
وسوريا
twelve
consequences
evil
longtime
##iors
التشريعية
blog
المقات
##asters
للناس
لكون
historian
##ينو
grace
اسبوعين
قاسم
تكل
يونس
ربيع
الفلك
pron
##sch
##roph
font
نهاييا
شاه
المستخدمة
tomorrow
عقده
rent
##ho
##rum
sax
##روز
هت
القبايل
تسمى
مية
الانبياء
العميد
الصدد
rookie
##iev
assessment
##حها
عندها
##تماء
الكار
تقسيم
pill
acted
ارش
chi
750
presidents
القواعد
البشري
tip
comfortable
الشيوخ
cauc
توافق
incidents
وارد
##يتك
gradually
forth
eligible
حققت
##نك
الصواريخ
قرابة
مقال
الادنى
##iece
يعقوب
bernard
equipped
لتف
ساخ
nasa
hend
المصالحة
context
مواضيع
##ترط
regulation
الصحابة
المخط
البطر
يثبت
لادارة
الاولمبية
tool
##ساءل
حبي
يسب
الاسيوية
##عدات
##كييف
اركان
الكات
blacks
jimmy
مره
absolutely
تمه
##anne
شراي
بالمد
103
##ـل
منصة
##اعا
##fc
pension
myth
شوارع
تتعرض
للانتخابات
تنزيل
٢٠
انطلاقا
##عارضة
##كرون
وبعدها
توصل
assumed
tape
التربوية
تحب
تجارب
##فيين
الضمان
فلي
warri
##رتك
اتمنى
possession
##otte
اوايل
بحكم
تكلفة
crossed
biological
الصناعي
sections
اجريت
اسما
الخلافات
للدول
refere
acid
##زالت
##رامي
qualify
النحو
##65
وافاد
atomic
القذافي
وايران
riding
المشروعات
occasionally
155
الاقتراع
toyota
stev
cock
تخصيص
##ناقض
عاط
##فالات
rockets
##وايح
##eno
holdings
اغاني
kiss
escal
customer
wells
##اخير
غرار
الخيرية
belgrade
عيون
absor
##ينيات
bars
اخلاق
ديوان
لهما
##utical
الصار
gol
التشكيل
childhood
1928
steven
طلبت
composer
beck
cowbo
يفترض
الخليجية
اكون
imf
بحد
cryst
الحاضر
nhl
relev
enorm
samuel
النشر
dating
اونلاين
فالت
تتخذ
##ublin
ماية
##ستون
احتلال
uh
brings
الامت
bears
outlook
المايية
واعلنت
المخاطر
outd
رسوم
counterpart
السلبية
صدرت
يونايتد
contribute
##فساد
dump
اطل
ميناء
unve
hem
marshall
وقتها
داخلية
واعرب
النش
العكس
##arus
1932
##رعان
expanding
يكشف
##onian
الثلث
sustained
للطاقة
عندنا
rodriguez
kabul
exposed
athletics
لاطلاق
helicopters
colony
salary
المتعددة
النقطة
التصرف
##اشات
المتهمين
##هدفت
##ونيس
##زايا
جواز
شاركت
killings
occurs
businessman
جلسات
##ulating
ندوة
eve
##روضة
الاستعداد
##angel
##لاقي
فيس
دينية
##زامن
##حلات
ng
محدودة
dust
##bus
cairo
معايير
تنفي
intens
تكنولوجيا
lobby
persp
##ourg
##erald
##istol
sisters
framework
marath
225
kum
الدبلوماسية
اكمل
craig
boyc
خد
الاصدقاء
الافطار
انطلقت
فيقول
مقالات
الميت
باعتبارها
wrestling
shed
لتنظيم
الاهمية
اعماله
expedition
تسعة
##ixon
ميدان
مرج
##ifer
سنتين
diseases
##وافقة
##bu
المميزة
argue
القوية
الصعبة
وعي
##ahn
##ارسال
arranged
troop
disputed
lasted
الالب
##father
اسمها
الحكمة
extraord
محب
والال
يحكم
صعب
وتحميل
##تمدة
##جيا
jakarta
excellent
revers
بيننا
garcia
activist
المعارك
مهارات
لتت
##يييي
##وقراطية
جوهر
يضمن
تقر
nan
حاولت
ingr
اخوان
emir
بجد
bats
يتوقف
outs
نقابة
surname
سار
conqu
##amese
belt
innocent
slovak
foreigners
##هاية
الاختيار
الموازنة
الجنايية
vegas
رض
لخدمة
للشباب
مهام
lights
حصة
قاط
evolution
costa
transit
craft
الخليجي
wooden
##phone
refers
نسي
separated
difficulties
pink
external
kw
اللجان
temperatures
##lem
بحجم
smugg
المتقدمة
fasc
execution
واكت
rolling
بمل
neutral
kon
باستثناء
conclusion
attitude
الاعلانات
بمجرد
الكترونية
sectors
quarters
واصل
تدعو
قريبة
##عمق
الدماغ
فاص
امه
جال
guerrillas
##here
تفوق
asc
بفارق
وبل
بينه
wayne
dennis
الواردة
##ayan
wis
مملكة
الاسبق
wol
ukrainian
المسب
للنظام
ze
1927
سايق
بالصور
##سيح
##harraf
ضي
##aman
مكث
##97
blank
ليش
##متاع
chiefs
##imp
haiti
pierre
indicate
يقود
الفات
publisher
المحل
يلزم
العميل
isolated
المصارف
اجد
سخ
انتصار
ثنايي
حاكم
volunteers
commem
سريعا
##hard
##جاعة
كاملا
ينتمي
##انو
##kan
tea
mong
constituency
perp
بدي
neverth
شكر
##rysler
الزيتون
gender
derived
بتم
francs
القريبة
قاله
فكانت
مستعد
اسقاط
رشيد
##backs
victories
trium
economies
المستويات
escaped
وتل
الانقاذ
vessels
توك
##فلت
##وثيق
المفوضية
cloud
hispanic
nevertheless
الساعات
##بارك
بسم
القبول
lineup
الحلم
musharraf
##oys
muham
exit
useful
سلطات
hij
تتمكن
يطرح
harb
##95
رت
slump
wildlife
tables
سكن
##ياع
تفرض
juris
##عداء
##واها
وجوه
##هري
ربه
1924
العج
classified
ادلب
##واهر
وابو
croatian
الابداع
upr
##بكات
geneva
هامة
nt
hav
حياتهم
الوان
##hnya
المشاهدات
ممثلة
##omed
الفعال
كين
فحص
reviewed
سرا
amounts
##ongh
##lev
settlers
describe
karl
مسوولين
bulgar
##eta
الزع
وبدات
ee
تفا
##فسية
الحارس
marie
posts
mak
وزوج
تشجيع
##uccess
generated
tear
السكنية
plenty
يمكنه
العيون
##34
فعلى
chechnya
نبيل
تعطي
انقاذ
yout
عقوبات
##كاة
credited
108
الصحفيين
يقضي
اضغط
الفصايل
channels
اعلامية
rend
procedures
والاعت
##ti
##املات
مخط
dy
sparked
تدل
scholar
medi
##ساوي
##شرع
##etch
flower
unexp
واصابة
stabil
نظيفة
##يمه
subjects
اختي
todd
13th
conversation
uganda
##nell
يحق
المرء
taste
الشكر
unsuccess
lots
##مكن
caps
##inery
dawn
alexand
والسي
تلقي
breast
الانفجار
beng
##bank
incorporated
خاش
##ante
المستشفيات
navig
striking
المساحة
rup
ورشة
rebell
##ested
البترول
dynasty
spell
petroleum
anna
فني
branches
stroke
##غى
فاض
sponsors
للتص
اضطر
الاسرى
ايق
##eria
حديثا
ودم
tum
الاخطاء
somalia
بخط
التام
##حداث
##شاكل
warren
ace
mack
جعلت
sympt
perry
relie
اهمها
ss
والدولية
##قوط
ups
تنص
cream
chicken
recre
الجايزة
صواريخ
برصيد
dad
التسل
لول
مدخل
##وقي
##hand
hidden
غذا
حظر
ونسبة
##ensions
1922
دروس
قصف
السكن
مارت
parallel
queensland
المفترض
لحركة
##anth
الرغبة
##يرت
وخارج
لاحت
##ظلم
سمو
##daq
الجامعية
##ضحك
بالدم
ولبنان
امة
##gered
##ulus
##صدير
والكل
hunter
ولدت
الشتاء
thinks
climbed
hed
vary
##شاهدة
ليون
sv
موكدة
مضى
cyp
الافت
capitol
uniform
##وحا
distur
##38
الضروري
ويعد
rena
انشطة
امني
رابط
##iva
ومثل
##ranean
الراهن
uranium
المصلحة
designs
التاكيد
conservatives
barbara
واليوم
burning
##eli
##unction
processing
الحاس
اجنبية
الادوات
##iani
realize
والمجتمع
السنين
copyr
موظف
inters
##kok
الحين
مخاطر
دل
##nik
consisted
wage
weren
kilometres
واصيب
##olds
fastest
wealthy
معروفة
photographs
sarah
شعبنا
mohammad
القطع
##افرين
hindu
kitchen
##سكي
chech
landscape
وكتب
نبي
##لاحظات
وحقوق
chapel
arriving
automatic
valid
التعا
شاي
الصحيحة
##omot
yu
##وكي
احتفال
الفنون
حذر
اشراف
1931
بعدد
##ais
مطلوب
replacing
الضغوط
busy
##ـم
تفس
الترم
unrest
انخفض
quake
متخصص
المرتبطة
subsidiary
visible
ستيف
nev
الزيادة
تنقل
##مله
يسي
##orous
tackle
##intend
prospects
اختصاص
104
bachelor
شقة
بالمق
135
tension
##ressed
جاز
chan
محرك
appearing
طاقة
##راجات
##فون
تمارس
اظهر
شعوب
الطايفية
##الدو
##مام
inhabitants
حديقة
شات
rou
grave
staged
monarch
سعودي
assign
forming
الصديق
shipping
sole
وعلا
ومص
للحفاظ
الساخ
يعيشون
افب
operator
triumph
احزاب
قدرات
spa
تتراوح
معرف
تصنيع
عملت
زر
barely
وتتم
emissions
وكنت
1930s
punch
العناية
الشرعي
التوازن
ومق
زميل
readers
سح
الينا
unexpected
explan
خسارة
الشراكة
الازرق
##ناز
الحلف
suffer
رووس
بالاج
##hill
mcdon
nickn
خيرا
##بدل
reop
jung
ours
##سهيل
##وبرت
مهاجم
النموذج
##mi
مثال
##اعم
تفيد
المبر
fatal
##tz
scholarship
المعلمين
وروسيا
riot
##قود
التعلم
فعله
rebounds
##واط
##rible
goalkeeper
بالتالي
##بون
كسب
موجة
##ierra
proport
##رمي
suburb
بدقة
pont
##وعه
للفريق
اساليب
منظمات
والعم
ancest
instruments
1923
##estone
##يتنا
balls
1925
مراد
اجتماعا
abol
synth
##ندسين
releg
negotiating
1921
والثقافة
##فعال
نعلم
##صام
متخصصة
counts
momentum
horses
##ibl
للسلام
اصط
ridge
electrical
السنوية
يعقد
##eton
الجمعيات
لعدد
اعقاب
luxury
الطويلة
15th
التنظيف
جبر
barn
مبادي
##عقد
حرة
ملع
##ifications
يومن
للعالم
توت
terry
intervention
لتحديد
الفيروس
قاموا
مكاتب
طيران
جزاء
powered
lion
اثبات
explosives
لشوون
##grad
##هههههههه
ارادة
##هامات
يدعى
التعليقات
منزله
حاز
announce
تتمثل
للاص
random
الحساب
الانتح
الرحلة
اسراييلي
يتناول
قلبي
##قطاب
aide
uncle
الفوركس
publications
elementary
بقد
الطواري
نات
##mal
تكشف
##يوط
تسير
##صلي
ووصل
##aments
##اليين
بتوقيت
withdrew
##izz
cheap
gau
واذ
الوض
spots
الهادي
harsh
##ياتهم
الصع
واستخدام
matthew
root
القارة
الاشكال
الهندي
honest
البرم
portfol
ومنع
zhang
صب
##طاف
ووجه
videos
nasdaq
boliv
merged
لاحق
coinc
دبل
mediter
المفتوحة
##ونت
##dles
##عاش
يقصد
billy
##oval
tah
مدني
##وايف
ov
وحماية
قرى
العاشر
الفلاح
الجهد
##izer
feared
nerv
cinc
##ناعات
1912
##اعه
##صود
النقابة
arist
traged
للحد
punishment
لمصلحة
eating
انتح
##ولت
earliest
السبا
اتى
##رتبة
assassination
مشاعر
chirac
شرب
استخ
##ددت
components
assum
الجامعي
obvious
النقاش
takeover
valuable
الحرس
اللغات
المساجد
totally
phr
reward
##efa
دوا
chand
صحيحة
بالسجن
##ملها
cleared
kirk
بسعر
وفيه
بالمنطقة
مزد
dw
165
الازمات
disappointed
داف
مصن
اسوا
experiences
جند
الولادة
وسلام
##ساط
revised
لويس
luck
ويرى
promises
القاء
الاشتراك
castro
وعبر
##كاسب
التحول
##ونيا
##uda
probe
ورف
يفتح
رات
تاجيل
arkansas
نسبيا
اليات
##etown
reass
##كريات
النح
##ادن
14th
##ivan
violations
توقعات
strang
thrown
incumb
لوقف
##hy
الماج
##opes
مسيول
kle
قديمة
دورها
##fare
##arrass
الارضية
crackdown
unpre
##ضار
resumed
باعتباره
يحل
##صاف
معالم
lan
cattle
تطل
beth
overcome
حرك
caution
استيناف
hungarian
تود
##جليزية
##rome
استثمار
ideal
burns
تعبر
##rin
##plus
استقلال
embarrass
روبرت
تحديدا
متطلبات
nu
##غية
شهور
تطلب
wrec
الحوثي
عماد
مصرع
tonight
المعدات
المهاجم
##تهاد
remind
##خفضة
norman
الخمسة
الاحصاء
ian
اسفر
سط
deuts
thorough
##عكس
##96
loud
يعط
لمصر
بحرية
michel
الشاملة
نض
##انيه
discrimination
copper
الارث
parking
##atched
القض
قلة
موظفي
امثال
حميد
مصاد
التحرك
##ليك
mandate
اضط
overwhelming
##قتي
الخضراء
128
malaysian
##irm
جوانب
وتوفي
##iac
##الثة
ماج
ممتاز
##gie
المهني
موز
premium
##umi
advisory
##oni
vanc
##قرية
دقيق
caval
coaching
aims
##ilation
محفو
collaboration
ستجد
relationships
sufficient
شاح
باطلاق
بارك
investor
##ration
البطالة
desk
carries
اشك
progressive
##قسام
جري
departments
adjacent
##قاليد
cambodia
munich
solve
indigen
حلا
احمر
youtube
##anim
الافتت
celebration
الحضارة
سامسون
المقام
align
الحز
##قجي
realized
##aring
guinea
بولاية
يثير
dublin
simpl
##وارث
قابلة
التمثيل
##عتين
buses
smoking
الذهبي
##utt
##aid
addressed
hostages
negotiate
الطيور
competitors
مطال
التعادل
artistic
الفل
pact
والي
وتر
اقتراح
exposure
pending
المعايير
التطوير
وشارك
pere
lakes
retained
التضامن
fert
المسايل
asean
hostage
##32
وفتح
oun
##عارف
1926
الحكيم
buffalo
والخارج
وعض
حدا
##عديل
evans
joh
continental
copyright
tent
والقانون
##قلق
harder
merely
لعملية
mediterranean
##خرة
exile
forget
والرييس
##aware
alaska
marines
استطيع
هواتف
قرات
التفاعل
thirty
##يعاب
practical
productions
exploded
متت
bash
dominant
المتف
subd
approached
وبالن
chest
تذ
تجرب
essentially
بالتح
khal
warrant
incent
يدور
العالمين
احرز
##بادي
consultant
distinguished
مخالفة
الرياسي
توظيف
griff
محافظات
##zai
تركي
##بره
القديس
fairly
##غلب
محور
intent
بمت
impressive
باحت
##ucted
تفقد
carn
scientist
الهامة
المخالف
الاماراتي
مرب
vulnerable
##زان
تخفيض
1910
germans
1915
سيدنا
##زر
صادق
انقرة
شهرين
الفنانين
الواجب
https
entrepr
venue
مجم
##yard
ستن
قلبه
نصيب
الجسد
attacking
technique
guess
اوقات
alfred
تايمز
هاي
متع
روب
argentine
exchanges
##وراه
الهندية
السايق
unw
سرية
المنتظر
keeps
الوقوف
الاطلاع
somebody
villa
المصابين
مشبات
واط
يتخذ
##bb
الدموية
##جلب
accusations
زياد
الثوري
حولها
لعم
##يرن
borough
throwing
##قولة
jonathan
##كيا
ferry
mig
definition
كسر
##طت
##لاحقة
فايدة
barg
mainstream
خي
poison
gdp
حلقات
حقه
pand
الباحثين
محدد
##ignt
vatican
الامريكيين
solutions
الشرع
##قاوم
bangkok
##رافيا
الحظ
تعبير
##يتامين
احلى
بوزارة
الاضاف
starred
##sex
بتنفيذ
سعاد
molec
107
personally
حارس
هوا
الراحة
##ouver
vietn
##issance
apolog
المار
##البية
spy
adds
للمس
اللات
نجحت
##رحم
بقرار
الجس
ذهبت
وطب
شبكات
واعضاء
وبشكل
1500
peacekeeping
sloven
thirds
الصهيونية
uefa
##88
قصير
للاستثمار
الفرقة
##wick
لفظ
لغير
vietnamese
يتعين
turner
enterprise
##وسم
lying
shadow
nationalist
الحمام
##خبات
المزارع
##ثا
##iration
لاقامة
##nan
anybody
اطول
reiter
الكردية
##حاكم
suggesting
muhammad
الزاير
المقدم
opens
وضعها
قدما
المكونات
bulgaria
operational
جامع
##emed
مدين
erect
greatly
خسر
الحرام
dayton
##bow
5th
حوادث
stating
entreprene
dak
النهر
forests
بعملية
pup
franklin
prestig
غادر
##شه
consistent
pdf
sporting
##صلين
##zhou
uncon
till
بدورها
encl
يقرا
المتع
##صارات
vancouver
##etti
appealed
وخط
indigenous
الهام
سويسرا
##شير
عار
##alez
اصابات
عادت
لولا
يقتل
الشيوعي
achievement
الرقمية
##enberg
horiz
##دار
##جزء
pyong
elderly
##opp
وشع
charlie
sierra
sovereignt
استهداف
perce
arrests
واصب
northwestern
cotton
##وكول
authorized
##ريغ
wheat
##نيه
سيست
التكن
conventional
التز
برعاية
تولى
الزوجة
kay
##فلون
ريت
مبيعات
complaint
lean
الارهابيين
manila
استهدفت
يفيد
motorc
التجار
preparation
ويعمل
nord
وجبة
demonstrated
طريقه
tribe
عر
المخصصة
rt
اللازم
بمختلف
disarm
الفجر
برلين
اقسام
secured
##بى
بيته
فالح
infected
المتقدم
shout
الجب
وتاريخ
##هلا
الفتاح
tanz
##berry
جوايز
الاهالي
##بوت
##rets
utility
cincinn
credits
البرية
shuttle
rico
زراعة
stakes
الحوا
kor
الممتاز
الاسكان
sovereignty
##iph
##iverse
زفات
ويقوم
establishing
##bach
employers
1916
تكري
bone
bold
لاسيما
##itis
تقام
verdict
المبنى
rhyth
بالث
midnight
رغب
kinds
mood
angels
cruise
رابطة
اهله
johan
worksh
veto
##lon
prevention
المراقبة
urging
الافراج
محتوى
gig
وجهات
تزوج
الحركات
مناص
هيكل
##ente
tribes
علاء
للاف
21st
والشع
inaugur
bomber
organizers
المراحل
صيد
gest
bp
##raid
personality
السعادة
foss
advertis
##رقاء
##لسطينيين
والمخ
##وقعات
relax
##owski
##ulu
باعادة
tox
##gio
النظرية
volunt
portland
pitched
lynch
libya
donated
procedure
القادر
moz
enormous
participating
congreg
susan
##سفة
التعاقد
endang
retreat
يصف
##انياهو
بتلك
مري
conspiracy
cincinnati
mode
##وسا
بعثة
bert
لبي
pyongyang
ابرزها
حديد
dup
colin
يفس
106
bobby
عددهم
ثق
efficient
##اثول
##ــــــ
الشرف
facilit
الاي
يعرفون
restruct
المنزلية
confer
##هرا
تصور
##urer
سيادة
معارضة
مغلقة
تنتظر
الصناعات
المحمول
مفر
امي
lanc
##ords
russians
عات
##col
anywhere
pitcher
stance
##تهر
relevant
ويحت
leh
شهرا
المدة
##gins
والذى
swept
لزيادة
اصدقاء
##اضرات
وسيتم
##رتهم
concerning
petition
##lington
انهما
العمالة
sark
بليون
العجز
محاكمة
محام
الفتيات
خار
danc
وطال
conflicts
منصبه
preferred
ثلث
##ريفة
##نتيني
mull
وكيفية
دورات
##خان
ابيض
مشددا
البحوث
dm
ballots
مماثلة
مكونات
fare
colleges
##ناف
steep
pollution
confed
السهل
##achment
فنان
الاجنبي
breaks
##lock
لعلاج
و5
buyers
grav
ling
بقاء
##زف
pale
نعيش
rehab
swift
التدريس
كردستان
christians
finger
saving
stolen
ره
leaf
demonstrations
الاتحادية
لتحرير
transmission
يقومون
مسوولون
gur
واصبحت
complicated
slipped
يخدم
revival
##adh
خاشقجي
restoration
romantic
nun
autonomous
اجاب
ecu
المقررة
360
بمس
الكريمة
مشكل
لتق
##inos
بتف
العاص
implemented
سامي
220
helm
عليهما
العقارية
editors
المعدة
الضع
margaret
mars
##ede
مبالغ
##ريطانيا
##شهد
##zo
والمق
truly
نهار
مهد
النقدية
وفرنسا
mate
ster
ليفربول
trips
##jevo
مباحث
ملاحظة
assists
يصعب
قبيلة
الناصر
النسبة
##قايد
طيبة
##امح
والدول
triggered
tempor
وكت
##ورن
الفضل
bm
##actions
التوقيع
involves
شغل
##وقاف
fernando
derby
فاش
ساير
parade
القصف
لمنظمة
الملح
##كاية
وزن
استهلاك
collins
##ـت
##بها
بصف
الجامع
rape
بيانا
kath
ردود
الظلم
الما
worldsources
devoted
musician
defeating
زل
penalties
##achi
odd
ric
بوضوح
المنطق
violation
##براطورية
البحري
lakers
##يبا
specialist
السرية
فروع
gardens
ارتكب
المكلف
الدعوى
المراد
والتف
102
مسح
الجذ
##ضايع
المحطة
ghost
extraordinary
واصحاب
اهلها
عشان
السباق
hillary
lip
##عان
وتاتي
المرف
اجتمع
تطالب
##ettes
indict
الندوة
الكف
celebrate
صيغة
tours
aar
nobel
wider
##iya
##asa
mills
belarus
mul
لاعت
الغضب
##واتي
virtual
استكمال
بوست
وادارة
ياب
maine
ومو
composition
insurgency
additionally
martine
asks
northeastern
deterior
youngest
المغاربة
الشف
parad
consisting
##واصفات
##gi
حدثت
##اتيح
موقت
infect
الفوضى
##ابيب
##via
lope
##جعل
الغرض
هريرة
eggs
pole
خلايا
الايجابية
challenged
##bery
staying
##دادات
ربي
oz
الرياح
parker
فرج
مبارات
##aying
##thy
moth
اشعر
##pm
##atherine
wag
المبت
hardly
##isms
العظمى
##قرة
stern
هز
tub
##اعيات
cameras
ينتهي
clinical
والعلم
ماري
dc
pilgr
gonzalez
gramm
الحار
automob
يعيد
simult
للشركة
اعتمد
يزور
كثرة
الايدي
يخل
intim
فقلت
تعادل
attempting
الاحتياجات
##مير
reflected
herald
##rot
reverse
##فيا
القليل
تخضع
السك
وحسن
promising
bris
timber
اثارة
التوافق
متحرك
fires
deployment
ايات
##andan
ceremon
collective
##راط
تكاليف
عزم
knowing
symptoms
simultane
len
الفيات
##olia
jurisd
similarly
تكرار
volat
##zing
fran
advocates
##36
searching
##agger
بغض
اضرار
##فاية
##ception
بفتح
##كررة
bour
eager
ثالثا
انفسنا
الفرع
رفعت
locomot
siege
roc
اندرويد
##gun
jacob
polling
##fr
ارجو
##ادتها
eh
##ولف
maintaining
wav
dece
وخل
##فيان
عددها
لتخ
pleaded
manufacturer
registr
associates
universe
afterwards
facts
عايد
pride
demonstrators
##omo
يقرب
##يتان
والثقافية
hob
يفرض
تحولت
لاعبي
transc
flows
جبال
برف
icon
feelings
عصام
لمناقشة
extrad
وتحديدا
##edia
mohamed
##mingham
southeastern
##37
الايتلاف
حيا
mild
battery
##انيون
commanders
##ستي
جر
flour
##هرات
الدعاء
باحث
pipeline
لجان
##ـد
##zed
الفيل
جمعة
تقرر
##47
##aughter
junction
afraid
المند
landmark
##رقم
لشراء
##mail
جمعت
##وتش
focusing
bic
##كوك
سببا
rect
لدرجة
الصينى
متاب
اليسار
##يقي
lopez
حسام
الضرورية
##rooms
والانس
وند
springs
separatist
اردت
يمكنها
ratio
##itious
الكونغرس
integrated
للال
هرم
strait
للاح
unpreced
للتعاون
hook
bloody
reagan
##leton
راه
بطرس
زوار
صادر
رييسية
##شان
تنسيق
symph
كيم
جزر
##يفور
unfortunately
##هدة
##ظرة
والحد
unprecedented
##ocation
نعمل
puts
craw
pond
nigerian
liberty
wireless
##98
اثبتت
تعويض
completion
##اهة
هدا
##تى
sult
earning
وعب
##ication
stones
الماك
##سنوات
semin
trafficking
##سعة
describing
الشورى
##طلة
##aba
produces
##ابون
##ck
ultimate
سول
##هرباء
temporarily
الرابطة
مصرف
قار
ربح
cinema
الناخبين
##uki
echo
كيان
ضابط
مشروعات
المحتمل
##قتهم
للمواطنين
sull
birmingham
معاناة
torture
rwanda
rocks
ياسين
تركز
hyper
باكثر
الكلي
eleven
لنفسه
الامان
لحد
تثبيت
الجنسي
شعور
preserve
الزي
resolved
thank
tribute
##صلية
recordings
##افا
القتلى
mend
التوص
peacekeepers
يهتم
dodgers
بمعدل
johnny
والثانية
sequence
fis
البعد
الدواء
كارل
charlotte
##ستانية
الحجز
1911
طيلة
guid
adapted
##mun
العادة
متحدث
attorneys
قتي
اخطاء
جث
بنيامين
عليا
nights
وثايق
تهد
distribut
boxing
##umbled
##ipper
الغز
الحوثيين
waves
##fers
اعلاه
chad
##صلات
##child
الوثيقة
prevented
quarterf
وقي
bread
وسيكون
genoc
asset
carefully
ترفض
hawaii
جنا
الارتفاع
ينص
bacter
شرع
unanim
volunteer
قايم
kas
arrangement
كليا
زملا
gram
اتش
sarajevo
يجتمع
provisions
موارد
يقيم
##roid
homer
فساد
رايحة
داعيا
وجاءت
darfur
قراء
يرون
البري
فيات
brill
اليونان
عاج
lifetime
اليهودي
shirt
للاب
##ین
المتظاهرين
مرمى
اسر
wen
imagine
##وفد
تغطية
##كمل
skept
المساء
integration
وينت
genetic
##خا
##illance
الصلة
1913
manip
عندهم
##رحات
mechanism
مكانة
admiral
الثمن
dressed
عمق
شجرة
##jah
##غد
jen
تفاعل
##يناء
##udes
تات
disappeared
خلفيات
##اطب
ويخ
vacation
silent
معارك
العقيد
##وكة
oakland
وتحسين
tragedy
بوا
canceled
predomin
##مادي
enact
لاستخدام
العت
المباني
##تمالات
killer
محاربة
##قليل
##لها
امنة
stein
يعكس
##اليه
##يفزيون
##وفى
امامه
regulatory
##ource
retain
stu
dubai
##rahim
protecting
يتحمل
descend
يقارب
للقضاء
ثنا
##onduct
surveillance
##كشاف
releases
118
الراهنة
cosm
enemies
peoples
disputes
situations
chev
gust
التاكد
##ctic
لجم
continent
وتحديد
dah
وكر
wore
substitute
##star
##edes
فلان
ناه
وتمت
ربنا
foods
مجالس
prayer
wto
segment
مقاطع
استبد
شرقي
gut
##غطية
لتوفير
السلامة
المجتم
واجتما
nee
ousted
arbit
testified
الكوك
لرفع
تقدمها
انضم
والتط
colors
drafted
القهوة
الصادرات
##isons
nervous
##فهم
hah
rushed
مروان
عمار
ودخل
##موية
رحلات
invitation
galax
الايات
##راسه
arguing
##انين
الزوار
marry
ليصبح
تمنع
مخرج
fortun
##zes
##oric
dual
فاك
stead
وافادت
ظلت
اليكم
shelter
شهداء
بعضا
translated
الخبز
perspective
laz
البلدي
doubled
legacy
المان
مشكلات
هاشم
القلوب
لفريق
##ودين
monaster
taxpay
likes
button
##rose
##strong
chips
mcg
الحجاج
demonstration
periods
موقعنا
168
مطر
نجيب
farms
وطا
painter
martinez
منتج
##ابقات
القيادات
الابطال
رونالدو
chrysler
marit
شملت
بجوار
واقتصاد
الاخرة
يهدد
الباحثون
والتجارة
frederick
##insky
البيوت
مقاعد
تحدثت
##جاهل
qualif
##كز
lions
العوا
sas
##osex
المنس
##esth
##abet
بضعة
تترك
##باري
هير
جرا
علاوة
يعادل
mph
administer
qatar
##كنا
علمت
cultiv
التصريحات
zamb
##كرانيا
اسرار
adequ
##قبلا
##eff
الكس
ويذكر
والارض
occasions
wickets
##rist
بطلب
وتنظيم
##ozy
الفج
fah
surviving
governors
surplus
boris
##arak
القم
توضيح
يتقدم
objective
phones
wels
لوس
العقاري
##amer
المصنع
##هدين
trapped
حسم
intellectual
##واحل
handful
فنادق
للنف
femin
keen
التقليدي
##allah
filip
competitions
شريط
بحجة
الجيد
سنين
تسمية
##acc
mobil
azerb
لانتاج
الموشر
happening
المتخصص
تسه
الفلسفة
كد
##بادرة
filmm
كفاءة
نبيه
قطاعات
##فسي
واهل
##وايي
العف
##eries
الفريقين
شهود
manuel
azerbai
pleased
component
mets
routine
conscious
heir
الحريات
anat
marathon
يسير
##وافر
porn
carriers
##هزة
الكلا
##rol
giul
بمصر
exha
hack
ترتيبه
والاخت
##inking
تتيح
بيس
transpar
suburban
ذك
كالم
اليومي
الرباط
العشر
cooking
##قن
exists
لدول
تخفيف
rifle
ضباط
wicket
rit
ويندوز
impose
disagre
##inction
##امى
corre
التحكيم
lis
raids
الناز
vit
بنتيجة
ruth
ينظم
archbish
properly
nab
الادبية
تمتد
الحوادث
ki
strange
eliminate
convoy
##uard
العاط
##athers
تثبت
تعكس
closure
ينتج
##rill
burst
القاب
expenses
##بق
cooperate
مدف
والمنا
قديم
حياتي
الزم
القصيرة
immun
توحيد
charts
epid
تذهب
عقوبة
توج
##ماح
لمساعدة
فيك
خالية
التوجيه
1908
ft
لكننا
physics
novels
##فد
##وزراء
predecessor
##ولمة
voiced
gul
encouraging
فوزه
عثر
##thr
تتكون
fortune
وحاول
العضو
##icting
محسن
##furt
fault
tenure
##aping
signals
تفجير
كلمته
volley
dated
بنقل
117
ومخ
اعض
interviewed
##زالة
##borough
دوره
السع
مصد
##سيطة
description
exclusive
##istical
متحف
تسع
الامريكى
prisoner
روز
الهرم
cousin
##ashi
survival
##ندة
الذهبية
stops
kidnapped
knocked
datab
الميك
مشاركت
السفينة
##ouses
تطلق
josh
استنادا
التمو
proceedings
##ylum
اقوال
نوعها
الاشراف
ستست
وردت
upgr
استقال
dancing
الدايمة
الابن
المطبخ
awar
##las
regardless
gymn
الاستراتيجي
قاب
اكتب
approve
##ساحة
facebook
displayed
بموقع
يموت
بلادنا
خوفا
تعل
##isive
لحود
##ـر
bub
##امع
الراسم
lending
##لكات
##عاقة
supervis
اجرى
dropping
regulators
##acht
##قيد
الاسماع
##yon
murphy
internationally
uss
ميزة
يديه
diocese
bio
الاتهامات
##atra
##وريد
النسب
loose
##46
ral
لنظام
requests
المساهمة
يتكلم
gaining
equally
arrangements
المنشات
lucky
mold
الاحلام
سينما
بداخل
ادراك
تبني
trigger
raz
##نم
lac
##omon
arguments
##ennial
honour
##iaz
حياتنا
sean
التبادل
mp3
ترجم
نخ
تناسب
الصبر
contacts
مها
awareness
wimb
cel
chechen
للمع
incumbent
البرتغالي
الطقس
اصغر
240
وفت
sheikh
##enne
amnest
للولايات
السلمية
##بديل
kin
bent
affiliated
بالمست
وكالات
نصوص
##تكم
مظاهر
الفحم
مقب
optimistic
##ظروف
الديك
عامي
medicare
الفطر
ودون
armstrong
ملح
##rik
الاكل
##يتو
fla
printed
##راهية
##كبوت
ثلاثين
فعند
لى
factories
التهاب
اتل
##كريا
خوف
difficulty
##rav
مشهد
##eu
بحثا
الحادي
##ريبي
lobb
تربية
بوصف
##وقا
radar
المحتوى
صارت
تحضير
الاباء
##ledon
السعيد
cypri
escort
تشبه
necessarily
hate
نبات
brands
المساواة
القى
outdoor
الانح
understood
نمط
تخزين
عاز
اهد
يفكر
سيش
وتقوم
##قيقا
بمقدار
##ht
للشوون
aa
jih
توفيق
##ادين
المديرية
الشيعي
guidelines
weakness
الاستفتاء
النسي
باجراء
والدكتور
##ياسات
تمهيدا
magazines
لتد
مسم
استهدف
موث
رييسي
yourself
تعقد
تتوقف
kap
ضيف
مدونة
reconciliation
رزق
فجاة
##ويع
judgment
لاخر
تتوفر
##rac
و19
##mund
المفتوح
البطل
##gate
ji
المهام
mason
modified
orland
قصيدة
sao
therapy
##ياطي
للقانون
##ايفي
جنبلاط
##فان
الفقراء
discount
غسل
ثابتة
وكانه
سيية
وخرج
propag
فتحت
الفراغ
النجمة
الاسلوب
الترجمة
النك
التسويق
sized
القصص
لبل
tier
##ذاكر
patch
##ستين
##mat
followers
##ea
##وامر
massacre
conviction
operators
generate
##يسية
legitimate
##lie
الاماراتية
collections
genocide
عوا
themes
oppose
خصايص
الجواب
##iba
البت
##endar
نتانياهو
epic
التصنيف
ايمن
الانتظار
stuck
lloy
غريبة
الجبال
sank
##po
vas
عنهما
ابى
البند
قدره
معاوية
البنت
##خار
فوج
##aukee
consulting
##auc
مضاع
elaborate
احتجاجا
ghana
fitz
kol
interrog
horror
الكول
##عومة
reprod
bonus
ممثلي
كيلومترا
tiss
tale
لكنهم
samples
privately
##جيكا
inspection
الصحافي
unfair
##لكية
##بث
##ـه
الكيميايية
##وزة
contested
ميون
##جدات
##الين
connections
السياح
صيدا
للتعليم
##رايط
استخدامه
attractive
مخطط
هاجم
portrayed
مسبقا
نصب
الادلة
##يلد
الميدان
medie
interven
تكمن
الرياضيات
ibm
الدواير
بالضرورة
عاجل
ترشيح
العذ
داني
عمرها
باسعار
وتز
تستحق
عملاء
omar
##وثر
##ونغ
versus
medieval
##بهات
territorial
bridges
##روه
والصين
##قسم
##فاقم
##ختار
المفر
مراعاة
reveal
attendance
الفردية
واسم
الشريط
##حيط
المطالب
الترفيه
requiring
mub
##اور
surrender
engage
##رارية
تزايد
tactics
##شو
flooding
coordinator
teammate
welsh
batting
clinic
bible
زادت
الالي
وامت
الارباح
##ديين
ممتازة
غيرهم
بنية
##انم
الفايز
dying
سكنية
ورجال
pirates
##acles
بقيت
nicholas
nah
uprising
لذ
existed
incred
شتى
المدف
og
alien
rebellion
امره
مبينا
vincent
كرب
منهج
امريكى
بطن
جدد
قضى
##ينت
portrait
##ـب
##rated
myster
ومدير
و7
نداء
السريعة
celebrity
اوساط
##rific
##اثة
الخطيب
الهييات
cheney
amnesty
الوظيف
##ديب
determination
ونس
لبحث
للانسان
تنظر
lung
mistakes
بنشر
ليصل
permit
fantasy
حمزة
fierce
wimbledon
milw
الحكام
grandfather
palestine
separately
##tains
حياتها
نزع
واتهم
وموسسات
archbishop
##bra
makeup
detainees
##كتات
historically
غل
تربط
closest
hik
حيدر
الزجاج
cave
وكن
adventure
بالحق
##rition
maz
shoes
##قرارات
questioning
##track
bombers
رواد
الاكراد
##غني
السا
handled
romanian
semifinals
الياباني
الاستعمار
translation
انتقد
sheriff
ميلان
belonging
عمران
##عدى
efficiency
الاوقات
الطال
##عدت
الممارسات
اسحاق
مرد
boards
##49
عطلة
populations
بالغة
اسفرت
restricted
والعلوم
##ader
اعتراف
defendants
##صارى
بند
للسكان
نيج
partial
المحدد
مناه
لعرض
asylum
##fts
الدستوري
##تهاكات
offsh
baptist
والذ
##long
##castle
ing
طري
##يوبيا
الشوا
improvements
milwaukee
مام
الاغنية
حياتك
صحفية
restructuring
ignored
تفتح
لابن
##سيخ
التعرض
انعقاد
##خصيات
runners
##ouch
نيابة
والبن
البديل
وشر
hey
phenomen
examination
الاعراض
الصحافيين
العسل
الاسماك
##arn
yor
ومما
debuted
الاضرار
advised
استعدادا
يوضح
indies
وجوده
الدليل
معن
erupted
secular
harass
##حظ
##holm
الزراعي
##mel
تنس
تضر
كرك
مخاوف
pine
intel
المستمرة
109
اعداء
enable
##طلا
certific
styles
ويضيف
orlando
الوطنى
البطريرك
الازياء
mog
##يقا
divorce
##iao
##ابهة
وبدون
وجهها
ارضية
##جهيزات
inject
بورصة
مرتبطة
bradley
العادي
indicates
وصفه
reception
seb
حجة
اختر
sul
تحسن
telecom
##aceutical
concentration
سبورت
airports
تعهد
comed
##التزام
يتحقق
kazakh
##brid
inev
##نمار
##زاق
المدرسية
##how
domain
ibrahim
الاصدار
##elves
للاج
##طلبة
الفتح
##ماعات
unt
145
يساهم
nominee
العصور
chant
projected
##وريس
conducting
غام
تلبية
اتهام
convert
الخال
nancy
تمثيل
##okes
مسلحة
hull
نموذ
caut
1905
اعتقل
##100
##ونديال
افتتح
patriots
plum
المرحوم
تاهيل
wages
رصيد
رفيع
يسمع
النفايات
المطب
grain
تقنيات
poem
fatah
risen
لعدة
statue
##شع
psychiat
هاني
ecuador
يسال
hughes
الانتفاضة
infection
التغذية
الثمان
##وتو
والصح
emphasis
lun
##ادير
التسا
stanford
المقاطعة
strain
boycott
##case
الموظف
homeless
خمسين
##امعات
اراء
privacy
seal
recept
مفتوح
vocals
yasser
غربي
ging
كانه
##acular
الجماعية
سامسونج
المستقبلية
lud
##فاوت
يتح
eagle
edited
معالي
cowboys
اضعاف
wah
يتحول
##wall
whereas
الارز
جواب
casino
##واكه
challenging
referee
privat
crops
الطيبة
scope
لتصبح
##lu
##antan
نايبا
بعرض
الشاف
donations
crazy
الجوار
سهولة
petersburg
##واكب
##يلاء
التحويل
نقله
luk
edin
تجاهل
تركيز
البييية
لتحسين
الجوال
القبر
تاب
والحكومة
مايكل
وتشمل
comparison
الفتنة
magnitude
بشيء
merchant
البنات
فعال
representation
بالمر
جوية
توس
ثقافية
commentary
لقاءات
الاونة
اراض
hiding
الصاروخ
رود
frozen
العايد
visa
revenge
لحضور
وزيرا
mamm
pressed
التقنيات
karzai
footage
##كرين
libert
فقر
##رول
تفاهم
mystery
##iji
impl
الاديان
severely
ethiopia
keith
الجوانب
الفاس
morocco
generations
لوجود
southwestern
ويمكنك
بواقع
pregnant
السيادة
موشرات
##jiang
درو
الحية
بغية
georgian
##خرية
##front
الفشل
##rent
جار
تساهم
والعا
الجماعي
البير
بطاقات
ايجاب
noble
##بلي
phillips
##aws
##وفيتش
reh
##هورة
العشاء
لبنانية
الكوري
الحسابات
marin
الانضمام
الاعوام
tunis
الابعاد
بالماء
repeat
psychological
منى
وظيف
institutional
toss
الشارقة
warming
متوسطة
##idays
glas
للتع
##kshire
##ogy
consideration
persian
cardinal
اوسع
factions
فاروق
reds
دب
##irts
experimental
معاهدة
peng
سلبية
وحيد
processes
السفن
lump
التسوية
##othy
##stri
##يوش
##41
وللم
يحضر
gotten
وشمال
resource
بالذات
روي
explosive
nevada
wonderful
وتنفيذ
persist
chaos
##بيبة
forever
##بعه
بحقوق
heights
##بوك
##uman
بريد
sacrif
كالت
ابنة
ظاهر
displaced
الغذايي
portfolio
##بليغ
ظلم
bust
176
billions
##غات
اقترح
ourselves
اختراق
dere
advocate
pearl
finnish
الهيكل
لازم
المقصود
ببساطة
nationals
بعل
sweep
طبقة
الهاش
##انها
sudanese
pete
وجهت
enl
لاعبين
quad
##دها
disabled
وجمع
تلقت
remarkable
sung
scout
inaugural
المسيرة
##فعول
locked
##right
موسس
autonomy
worries
##املين
##رايية
حوض
نهج
العماد
reed
العثمانية
fuj
التعليق
سفينة
التعديل
rogers
لانشاء
لمجموعة
opec
tommy
emm
وقر
sultan
مشرف
pharmaceutical
الارجنتيني
boundary
premiere
هايلة
الاكس
##افيا
يخضع
depends
ابحاث
indoor
الاستح
سقف
tut
professionals
البعثة
##جيات
الجدل
bags
##39
sanch
frontier
الوليد
gabri
glad
##وريتانيا
مازال
##contin
شحن
frances
احوال
deput
filmed
revel
hostile
protestant
نفوس
sarkozy
##وكا
وامن
##hart
kicked
الاجيال
montg
##اديمي
replied
متجر
فرنسي
وبهذا
frequency
صعود
##aches
privile
##اكا
extract
##emy
ماليزيا
الانواع
##power
اسط
##ثات
اللايحة
chat
decor
dragon
والغاز
inspector
الاجراء
ومسوول
##شال
possess
declining
##دمر
tournaments
egg
pepper
##asse
نقلا
ويوكد
مقطع
حصيلة
mugabe
##ستور
الحميد
تنفيذها
##through
رموز
وضعه
برفع
حامد
مستقبلا
انقطاع
ودفع
hometown
ليه
القدرات
الجلوس
تشي
krem
##بيح
roh
##orf
خاصا
underw
submarine
الاحاديث
والديم
الطلاق
الفم
تولي
عبده
insists
قايلة
basin
memories
حقل
تلي
جنيها
شغ
##طون
colour
السح
checks
premiered
الكبد
دفعت
##واض
##لر
artific
ترفع
موسيقى
colombian
skill
animated
ابتد
outer
impression
wo
التمر
silence
سيرفر
الصومال
لجهة
oriented
##ويك
invested
destination
ايس
##خور
باشا
##ribed
نعمة
cp
illegally
explor
لصح
habitat
ارجاء
funny
aggreg
ceasefire
grants
bearing
السكري
chal
المبادي
diverse
wool
saints
المصرف
recommendations
rash
وبات
التعديلات
hog
##ye
hassan
العبرية
الشحن
corporations
قانوني
##itr
##fish
alter
absent
لقايه
##mers
كانا
الاختصاص
المطالبة
فترات
initiated
##اماكن
##قتنا
kg
dependent
مرسي
##انسية
##واضع
bj
سرطان
introduce
##ensively
##asi
كرا
jal
neil
بمجلس
##راكش
المعاصر
المنام
1906
شعبي
حث
قدمه
sustainable
شدد
fabric
measured
imported
maritime
الملايكة
تتحول
##ذاهب
athlete
tired
مصل
زب
teammates
cardinals
respected
يتع
reasonable
##طوي
anchor
الواسعة
uncertainty
بنجاح
##season
ethics
##فلونزا
concerts
تراث
الستة
ليد
السلة
carr
hin
belonged
##صفيات
eagles
citizenship
فاخ
تصحيح
standings
السري
chop
touring
abandon
استغ
cum
تدفق
الاتي
116
interpre
newcastle
partially
valent
farming
sheet
chor
unveiled
لمعالجة
112
dign
##olph
ننت
lp
##غبين
cohen
zones
fict
ياكل
تنطلق
رياضية
علمي
madison
contributing
hudson
العفو
acquire
اقتصادي
الزوجية
الغالب
quart
##قالات
تزويد
لزيارة
المتشدد
basically
النطاق
hearings
honorary
6th
بالاف
الملايين
shin
الحليب
guerrilla
الشمسية
الكاثول
لمتابعة
##kk
تهدد
التفتيش
ووق
اذاعة
oliver
طاولة
fidel
##otes
مترجمة
عادي
الاعمار
مساعدات
rubber
المجمع
للبنان
السيدات
شعبة
pocket
kit
لتج
##قبول
مرارا
##شون
accum
arabs
topp
damages
برنام
donors
الكتلة
##فيه
##رتي
##اكس
##زاع
incomp
المحددة
محر
اسل
ينقل
mubarak
trails
sut
##طيب
111
##yt
violated
graphics
اتخذت
seeks
1907
nicolas
التوفيق
عرضة
المطاعم
تاخر
muscle
الاراء
graphic
seeds
##idad
##rom
جيب
frankfurt
sullivan
127
العضوية
التحديث
وبع
assured
significance
توما
sample
breakthrough
##كاليف
ورحمة
##iko
الفع
committees
المشاعر
loaded
تكريم
consort
cens
furniture
الجولان
نظمت
yam
مفتاح
enhance
rhythm
والتاريخ
dreams
الاثرية
ديل
##فاز
الخبير
جدوى
اعطى
والعب
plc
duo
تنتج
embar
7th
edinburgh
باق
سلبا
##wer
##وكالة
وبالنسبة
##غاف
explanation
##ايجاد
تسيطر
removal
strongest
sophistic
الخمسين
extending
criminals
mathematics
سماع
farmer
والاخر
فاد
الرحم
zah
discipline
شق
truce
lessons
##مادة
##ribe
انقلاب
##يدها
الحرم
التدريبية
دكتور
##fia
المكتبة
القضاة
pledge
accusing
والصناعة
mant
speakers
##coni
عنف
كاد
الايد
اقناع
##فرغ
اساسيا
##هدوء
jailed
اشبه
inmates
السعوديين
deemed
##cos
ارتباط
mg
تهتم
اطباء
المسرحية
flags
pga
الاعدام
التلاميذ
114
بمقر
plunged
محاكم
##صرا
الجنا
mahmoud
##owing
legislators
للعب
##يليا
reflects
powder
المتحد
والاسلامية
الخساير
##ثي
policemen
insc
liked
1909
الاجمالي
المتحف
الاجتماعات
للعم
praise
explains
straw
بتق
##irect
actively
صياغة
الرحلات
المجالس
لسي
tul
comics
اياه
##uctions
عضوية
##دعي
ivory
طالبا
للبلاد
##atoes
arnold
##ashing
##لندي
وبخ
وامام
عزيزي
launching
##علة
الاهر
harvest
##تش
مواجهات
الثقيلة
اظهار
بالعاصمة
##نتوس
المميز
والسنة
عسكريا
ساي
##لقب
الخلافة
odds
وتعمل
الكردستاني
##uded
ومه
manif
يوح
وفاته
حذف
وقامت
hes
roster
الشراء
واحيانا
##يادين
##parts
يظل
##ava
reel
المستع
وفيها
مختل
retailers
الحارة
انست
obsc
airpl
الانتشار
انجلترا
نية
نماذج
obl
blew
يسجل
المحبة
cement
التفاهم
harrison
##awed
##ايى
جيمس
spaces
kun
كير
خريطة
الخليفة
فاح
patterns
permitted
المنهج
كح
decides
تدهور
##ju
discour
sentences
كلهم
crist
العال
##ردشة
signature
الشعراء
##يجة
بالاد
ولها
واصد
guitarist
الاسلاميين
السليم
mete
المفروض
طبق
accomplish
bened
للامن
وارتفاع
والهند
remainder
considers
##iated
cole
اجازة
والمسلمين
لير
يبت
كع
jor
هولندا
assisted
دوليا
##تس
الربح
mechanical
الخاط
قويا
المناق
strongh
courage
##صن
algeria
audiences
civic
العظام
##chan
فبعد
بالقوة
##encia
deputies
accurate
##وبه
##anded
continu
##borne
integrity
الناشر
eug
disrupt
الابواب
##kei
يتج
locally
بوجه
##ilateral
ودي
minds
لاني
يحفظ
buddhist
الفكري
riders
vib
transactions
ملعقة
desperate
##سيكية
فيروس
كهرباء
moreover
hew
completing
##رضا
التعذيب
تصاعد
##اربعة
138
##ويج
الظاهر
يسيطر
##31
الكورية
الصلاح
##icon
امانة
المتوسطة
rocky
الكثيرين
بالتع
##tor
التربوي
الصفقة
notion
بديل
disappointing
##مسك
والابت
gast
sprint
مغادرة
##فترة
##اليم
العقيدة
airways
تحفظ
relay
foul
polar
وثلاث
boundaries
واعتقد
مكانه
##ishi
pf
شام
مسرحية
للانب
خطير
الانتاجية
##اطة
schwar
jointly
reid
بلوغ
ازياء
topics
load
الوظيفة
التوقف
evangel
السياحي
ورسوله
للحياة
##iley
burden
سيز
الدولتين
##enter
receiver
worship
reiterated
نفوذ
المسلحين
serial
البورصة
وتلك
voter
التوحيد
لمدينة
##ulations
oxy
والقد
lined
##aea
deny
توقيف
richmond
##pur
subt
وحق
##تماد
النباتات
cc
graf
satisfied
lamp
##ilst
patent
والسعودية
dock
وتركيا
العشرات
استثمارات
evacuated
قتيلا
##lights
للعراق
everywhere
المطاف
بالتنسيق
الدجاج
sars
كويت
ابان
شكلت
errors
##eters
المبكر
exhibit
administrator
011
mario
للسلطة
اللط
تقدمت
assume
reaches
شوا
ضح
العنكبوت
القاسم
استعراض
الايجابي
مستقل
تشار
favored
الفاض
فيجب
genre
وافضل
لانك
chamb
reorgan
abdel
##pin
الصمت
يشغل
##شاير
laura
##ighters
peaked
هذين
ولماذا
lloyd
pedro
##الدين
indication
والرياضة
announcing
sacr
olm
بورت
استثناء
##orious
تاريخه
##orms
الضرر
##لوا
تمسك
المحقق
الشاطي
ميلاد
المنع
الفرا
macedonia
التبر
فعلت
و20
crystal
##verse
prefect
physician
للسيارات
pla
ارتكاب
##اديمير
##rine
guild
الدقيق
##فضلة
cartoon
تعليقات
##سمية
##ographical
##اهير
ميس
intermed
فيتامين
goth
troubles
واظ
clim
manusc
humanity
تاك
dubbed
##رايق
والمج
هلال
الارجنتين
التطرف
نفى
preserved
currencies
hence
عدنان
##شرا
deutsche
expecting
acceler
exploration
الاصلاحات
ووج
فعالية
المهارات
addressing
##hu
تطورات
تلب
خطرا
العاهل
المتعلق
المجلة
aus
cyl
ركن
اربعين
zoo
##راقبين
1904
organised
##ناقش
chemistry
calendar
بمثل
المنافس
choices
متاح
اعمالها
whis
الاوقاف
shaw
عظيمة
bulk
chronic
التفسير
instrumental
endorsed
برك
##gow
chuck
nose
والمف
الحاكمة
مسقط
answers
nn
wallace
يستقبل
##تمت
##ضيحة
والنساء
وردا
النيج
timing
watson
عالمي
دورية
العلامات
جناح
برد
##rix
فلو
protocol
nets
اكاديمية
التقييم
تدريجيا
استخدمت
##ــة
##42
يغير
230
زاوية
عالي
الموعد
اذكر
taiwanese
##ايته
pyr
lasting
التحدي
##كروسوف
مثيرة
quote
marking
هدم
الضباط
ستار
مخصص
رياضة
مفيدة
conting
حكما
##كاوى
عني
البالغة
towers
ماجد
##طفي
##امرات
proven
الحربية
الدراما
comeback
بهما
اخبرنا
##غياب
طاقم
neighborhoods
villagers
##افه
intr
butler
brush
jihad
الاستثمارية
beneath
وجنوب
anticipated
volumes
وحصل
الليبر
وتضم
سرقة
الحظر
##يزي
luther
persuade
يميز
briefing
monop
ارا
ferg
##eston
##اريين
بانشاء
galaxy
hos
والفر
خفيفة
counted
soundtrack
##ourt
للتجارة
hk
هاد
orph
مثير
مثله
الريف
الجرا
warnings
قمنا
ملامح
##فلة
عنك
hood
ذاكرة
##همين
boxes
بالسي
delight
mats
جثة
##نيست
##ريش
conj
ومكان
maintains
beir
delays
remembered
بكافة
embargo
##ضحى
استطاعت
##وعب
دايمة
##مى
##كروسوفت
jin
cheese
محلات
topped
ولذا
##ثبيت
noise
بتنظيم
مناخ
##يدين
goldman
سند
القيادي
anyway
دعاء
##وشي
murdered
ioc
diesel
ومحاولة
descent
timor
starter
الثنايي
terrible
##arat
##after
##رفت
##جيرات
sanct
snap
reluctant
grid
جميعها
الجملة
kilometer
فی
icel
ساد
الصيانة
guardian
##jad
mirror
حادثة
ويبلغ
##moil
isa
somewhere
لكان
regret
اوبك
المصنف
##واية
ادلة
فقالت
chef
البطن
اعلانات
والتد
##كاك
##ساك
تكس
legally
السكانية
وقتا
##ovich
التراجع
ammun
اخطر
الوفاء
فير
وبط
characterized
صاحبة
amster
كيلومتر
والاردن
patt
الذرية
بابا
اندلاع
photography
الروايات
بدم
تجهيز
##سيس
158
advisers
##اعت
الاله
##atern
فست
وفرض
yahoo
الهولندي
eddie
شرم
priests
##hips
discussing
وافقت
honda
##صاييات
##ripts
المسم
المادي
الاغلبية
تايل
disclosed
##وهة
الكه
عادية
pi
167
##ضن
chol
gingrich
المعادن
bryant
ottoman
##خصية
organic
ورم
##لع
ادوار
الحجة
tremend
سلف
substance
وكثير
سرعان
turmoil
الثل
##uces
والمو
##يلته
مذ
twitter
يتابع
والامارات
ig
العربى
يصح
لانهاء
dealt
الاشع
عيني
##master
المقابلة
الاغاني
نضع
kilogr
recruit
الفلسطينيون
الحربي
travelers
سوبر
الذكور
والاقليم
amsterdam
1902
وثقاف
##boy
placing
##سبه
مصطلح
hanging
تجار
sanchez
clan
بصوت
والشعب
##صنة
enthusi
الحزن
iceland
urug
##put
الخبرات
heaven
heroes
امتلاك
kremlin
dimin
الفول
##اتنا
الثروة
التسعين
سفيان
الرصاص
subsidies
##atem
azerbaijan
شيع
##ييي
##ayev
اللحم
ore
stuart
نظيف
البقرة
##uv
تمنح
والعربية
بتج
والاث
mits
faction
طلبة
##ocaust
والسياسي
ظن
slog
initiatives
chocol
اللام
##inson
وجرح
filing
immigrant
rely
postponed
الاركان
نشرته
8a
زعماء
vine
##most
ومتابعة
3d
##stad
يتولى
danny
##oust
accidents
urugu
##جبات
نفسية
paraly
licensed
قنا
##اعب
convince
batter
toxic
لواء
قضايية
قريش
والدفاع
الفعاليات
ومك
افاق
encounter
الجناح
##uba
1901
فازت
الاداب
chemicals
عميد
crowds
دان
ويقدم
تحل
voices
rallied
العقلية
الفقرة
fda
sque
حوا
موقعها
##نايس
ralph
##ثيف
##esco
holocaust
ينصح
kra
organizing
هزيمة
فساتين
zar
##يحات
استجابة
السحر
طابع
الدبلوماسي
ادريس
mothers
1920s
##كشف
##iciary
governmental
ويعرف
##ستيك
لادن
زرا
freeze
معالج
ملتقى
تون
خوض
chin
requirement
gentle
reyn
supplement
proph
وعاد
##ساة
الموجهة
يبر
وحض
homosex
ناب
تخط
architectural
##كتيريا
disorder
انمي
واستقرار
جسر
الحديدة
مكتوب
ming
nixon
والاض
##وريوس
ambitious
indicating
السابقين
prostit
perceived
بقلم
واقامة
المحامين
fract
الدماء
targeting
زرع
طلال
stere
widow
ايجابي
المصاب
humor
شهادات
113
ميزان
سمح
registration
المسوولة
اكن
المعاصرة
jurisdiction
##oga
intimid
##وراق
latino
##هاي
overha
ازداد
تلف
مطلقا
والاجتماعي
للاعلام
الجيدة
##echn
المصرفية
دخ
whilst
فلاديمير
##وبى
جماعات
##mus
##ويدي
paulo
nebr
amazing
dischar
العسكريين
##زرة
richardson
##ناط
بالمح
ammunition
المحدودة
evident
سقطت
judiciary
beirut
##oker
pulling
نفت
##بطية
##وفين
ممثلا
الادعاء
constantly
##وسيقى
diana
##active
inclus
كريستيان
slovakia
hann
dismant
ecl
html
الامثل
scrut
للنساء
عذ
stationed
الرجوع
وبق
الانتباه
fi
osama
تنفذ
leagues
##مود
valued
يتغير
ليسوا
للتم
##held
سالت
cott
الاختبار
##داقية
فيكون
عرضه
دفعة
impressed
واقعة
jewel
martial
الصغار
##افاة
تمي
emotion
##encer
التدخين
والاك
cafe
harper
tanzania
بود
##riptions
jefferson
المعدنية
الطايفة
وبالم
graduating
pesos
##orph
نقاش
sig
الجدار
الصلب
careful
sacrament
بكامل
يتمثل
بوم
المتنوعة
brilliant
اليورو
الطابع
maid
symphony
دستور
وحمل
albania
المنصب
البسيطة
270
##اوى
##رقى
الاسابيع
بون
٢٠١
فعالة
النمسا
##uana
silva
ومركز
##enos
mous
توافر
الناشط
argues
angola
stab
اللسان
مستوي
1903
الاغذية
neighbouring
##antine
معبر
##92
glac
شدة
المزع
يسهل
##شارد
toured
الوارد
كتبه
اروع
ضده
نان
##view
دعوى
##بته
journalism
سلط
edged
استضاف
بخلاف
hein
المخيم
##رابة
الشيعية
الكاس
يواصل
bishops
##لاند
mcdonald
##43
##خام
مقام
التصدي
قدرها
certified
amazon
enron
miners
vend
ووقف
sinc
باه
بنى
التضخم
بمبلغ
##ifies
الموريت
شاعر
##اورات
benefic
حركات
straits
##su
للانباء
mour
##سيب
##town
بيده
##باحية
lyon
وقوله
peer
الاستماع
الجليل
fever
يقتصر
##cot
explore
##otype
shocked
الخش
nebraska
الخلفية
لاق
##جرات
conversion
##aca
المخطط
المتمردين
rebound
550
##esa
الانكليزي
##عيها
المرات
احس
فريدة
واحترام
sealed
##شعر
ايفون
cocaine
##ياض
ويوجد
vern
المطلق
schum
destro
الدرس
worn
##جزة
opener
expense
صناديق
137
ادراج
البوسنة
ahl
overtime
الترويج
devastating
noneth
ولدي
deck
clarke
reservoir
بمركز
تقليل
retro
wan
##دهار
abra
عبارات
والياب
literally
mixture
لقوات
tears
mt
dealer
الدوا
##حانات
turnout
pointing
preventing
المبد
hardware
bald
طريقها
##فتتح
اولويات
nonetheless
sympath
##empl
تعتقد
بالكل
##ught
المرمى
السنيورة
صراحة
admission
بالتف
##جددة
##فيلم
cameron
##rat
counterparts
عودته
العقارات
لبناني
المضادة
حفظه
رايه
كاليفور
krist
السعي
شمل
اوكرانيا
الممثلة
650
hearts
orient
كتابا
الوفاق
الاتراك
commune
##ايم
الافغانية
بطول
معناه
المنح
روات
يصيب
brutal
ديكورات
shouldn
##يقظ
genu
جيت
التخلي
مطالبة
absolute
اعجاب
##وكيو
الغام
قلنا
بدرجة
العباس
##واص
##روت
##اييل
فاب
lon
عمليا
pioneer
السباحة
سكر
compiled
نتحدث
ounce
##فوا
الجزاء
اندونيس
##lude
نحتاج
انطلق
حرام
olive
وجودها
triang
احم
##قطيع
##oda
overturn
predominantly
barrier
millenn
الانتخاب
guatem
##وكل
##قلية
##زايدة
kand
مرتبط
##علمين
pse
المتميز
والوطن
القمح
voy
##فاءات
##يسير
المطعم
الاخذ
confrontation
الاستقبال
لمشروع
ميجا
jennifer
panama
bhut
##otting
يرتبط
التحميل
tin
##اقية
اجنبي
قادرا
##يفات
عفش
engagement
لتصل
مرتفعة
ballet
اثنان
راك
تغلب
1800
##يشيا
والاز
امنوا
حار
investigated
##شاد
موم
وللا
autumn
حمص
emirates
يسكن
pressing
صيف
excited
stall
الامتحانات
##رايها
وتغ
##رونة
abbey
السلمي
gw
cruz
##فايدة
##جلى
المتابعة
rey
الحيوان
السينمايي
kenneth
والحفاظ
لافت
بيضاء
##اييد
sach
islamabad
rays
negotiated
lifting
قيمته
ضيق
ميزانية
الكثيرة
pursuit
extremists
cavalry
وور
بمساعدة
كاليفورنيا
والنصف
coat
presents
وبريطانيا
lifestyle
فضاء
condol
روت
##انيوم
holder
##بطت
columnist
##غرة
raymond
الوزاري
cancelled
حصر
سياحية
مذهب
المكسيك
##ستا
traditions
monastery
##شارة
stevens
hire
محطم
نسبته
indictment
taj
الصداقة
bowling
nonpro
الاشجار
aaron
ليبر
اوروبية
##arity
ايوب
ml
bureauc
الفارق
التهم
schro
nationally
drives
emplo
المتد
giuliani
لدولة
openly
##عدي
hir
الكهربايي
presentation
الحدودية
##ـــــــ
يراه
الدقة
##ido
عندك
approaches
disappoint
dug
zur
lawsuits
نال
layer
breakfast
##اتباع
الحادثة
جوار
لاستقبال
والقا
المقالة
beet
hadn
##ازن
##math
التجميل
وتوجه
tsun
##ضحت
sebast
الامازي
شعبان
sacred
##care
الروابط
commented
thri
spur
اشارات
جذب
لبرنامج
luke
الداع
يتعامل
الميزانية
اوجه
للمجتمع
subway
nikkei
يتسبب
وته
dissident
تنشر
##rawn
focuses
لتر
bulg
غيار
##حسن
##oro
patron
explicit
cort
franco
sits
contacted
crews
ونظام
##خاب
##رتون
correspondent
حرق
تامر
العطل
afterward
neph
bt
dent
المقيمين
البضايع
poul
inspiration
girlfriend
misc
##obi
اليمنى
##cha
اعمل
##top
vaccine
مخصصة
اللحوم
##cu
##فاقا
والتس
بوقف
lex
suspicion
deposits
##abi
الارادة
ووسايل
العلي
jamaica
counting
عك
##ذكير
bloomberg
حسابه
اعتراض
##سعيد
فشلت
drought
تطرح
متميزة
وايل
باسلوب
والشيخ
barred
يمنح
المفق
rains
تثير
تجن
miguel
الحادية
##isi
##ضامن
المبعوث
manufactured
orb
تدريبية
فط
وشعب
##وطين
kidnapping
##خصيص
alice
##urred
demonstrate
roth
متقدمة
يصنع
suburbs
oxygen
لاصحاب
الاعظم
غض
الغناء
لاث
نووية
supplied
يومنا
وايت
بلي
mao
item
عاب
الرحمة
sweeping
airbus
غس
opposing
refusing
##wing
respective
يجلس
توم
ومج
aspect
##روحات
ومنه
الرايدة
الموحد
##ركيز
anymore
belongs
songwriter
اباد
offshore
holidays
characteristics
صلي
النضال
مهدي
كارثة
يستهدف
slip
واشت
الاذ
switched
##quet
ost
الملتقى
diversity
wound
الشيش
حقيق
اقليمية
والرا
التوقعات
##عمر
مركزا
exclusively
##اكو
فيمكن
ميوية
للدراسات
الغريب
manages
gambling
glen
البرج
albanians
thereafter
dot
الحالى
ورج
الفوايد
photographer
##فذة
##opard
##fs
تامل
trio
راد
داخلي
simultaneously
##يافة
للسل
وغال
للنفط
عبادة
ras
157
soy
خبير
اميل
الشعرية
bever
تفضل
الحبوب
erected
societ
حملات
الاتهام
ميسي
الجان
متكاملة
انشا
uzb
احصاء
justin
##فهوم
##enburg
acre
ديب
الذكاء
ادلى
phrase
الكاميرا
بضع
الزاوية
وتشير
ump
stef
##قطة
outrage
scan
ارضه
##aint
slide
tube
الارتباط
##ددة
126
##تمون
وحزب
poems
نشره
ينس
ادري
debts
يخوض
##sfeld
doubts
تاسست
refusal
noticed
topic
210
##idal
##فري
rol
##تدى
طحن
##ورغ
##ridge
روابط
##قتك
المحاكمة
الضعف
annex
محدود
المعن
warfare
وبلغت
##وران
crowded
مواطني
ومجلس
scattered
اخرجه
وعقد
##رحيل
sculpture
يرجى
##سبا
جنسية
unsuccessful
ترتبط
wes
الحن
الفاش
الدروس
الكو
الاوساط
preparations
plag
##كوف
ارتك
النظرة
naj
##قذ
للاسلام
##usk
الشرب
consistently
mumb
sz
معاني
مكعب
##سنال
دف
##ichi
##ياحة
marl
strategies
المستدامة
اسعد
تظل
digit
حافلة
energ
الانص
ottawa
الاساتذة
breed
shim
المعتمدة
يعنى
##اولات
premiers
للطلاب
schwarz
يسلم
rescued
وتوزيع
guidance
fergus
9th
grim
موقعه
بتد
interstate
##وسوفو
شل
##كه
المذه
renown
chess
ماهر
shifted
اهتماما
ليوم
sponsor
innovation
وصور
دوار
ضيفه
##ثرت
تخدم
السامية
سرير
murders
meteor
اللاتينية
uzbek
الفهم
recovering
الركاب
glasgow
تمكين
eventual
النارية
زعم
angl
hash
نوعه
hatch
اليا
##وعين
بتس
zo
اورد
اليونانية
المركبات
researcher
الامتحان
hybrid
##راته
ينجح
##اييس
عدو
وزاد
grows
syndrome
فقدت
rach
feud
المشرف
receives
exercises
ركلة
canon
listening
الاقسام
الحدا
##قلا
structural
hunger
nursing
رفح
اوف
##بتهم
مطب
leeds
##دام
##osc
مراقب
وطل
##اهية
spreading
##جواب
تكييف
واربع
مونديال
الحريق
balanced
الصيفية
الدمار
اولم
حاض
contam
بولس
shrine
الاسط
istan
ضعيف
tian
honors
##حط
rolled
adaptation
انكم
##uter
favorable
التلفزيونية
##velt
seas
للمستخدم
heating
حكومته
كلامه
##ابها
tomb
والخب
استضافة
مجتم
يختار
confusion
للتعامل
مشوار
##ijuana
##uy
اللقاءات
##ركه
bones
الصفحات
يتفق
انجز
عباد
coron
تومن
suits
neal
harmon
##وظيف
condemn
fellows
##كسل
الادبي
كركوك
##emark
عرضت
##mother
الانتقالية
المجيد
abuses
السويسري
##يشية
النبوي
الموسيقية
لانني
مطبخ
##سار
فصايل
das
##طرق
الايق
eis
والبل
##وانه
wounds
alp
pseud
والتكنولوجيا
سيقوم
bristol
decree
المسوولون
نشرها
fing
##قطت
istanbul
suitable
astrona
pose
جوه
ضخ
circulation
dramatically
hiring
يفقد
nashville
فيليب
##vian
wholes
wreck
تتناول
فلماذا
##idi
العقار
maps
للخروج
psychology
##جرت
نيل
##unct
sophisticated
dakota
قبايل
##news
8th
touched
موقفه
hast
وضمان
المنتديات
fictional
mick
المتضر
المسافة
ويقال
1898
تناولت
##oum
yale
وفاز
##cul
وحضر
الحرص
كتابات
الممن
##انف
##ذكرات
skating
الحاسب
المسلمة
القراء
اصابته
عرضا
الدب
shakes
قدمها
شهريا
##chen
##فعات
##iov
انور
##يابي
relation
واعمال
##لفل
الانتخابي
answered
aven
يستعمل
المنتجة
بالمغرب
hamburg
supporter
تاش
bulls
pon
ماكين
مشاركته
suz
offset
tenth
ربك
continuous
بارز
سارة
##atus
واخرج
gilbert
رحيل
##رغم
pitching
detective
وتناول
throne
montana
الديوان
cater
بقتل
صلب
##haw
مسيرته
floods
صادرات
##identified
columbus
peas
ليم
التعويض
##لزمات
العلوي
العرش
debris
166
اسال
ultra
عنيفة
البوم
##شيء
تقريرا
الهضم
bahrain
ساهمت
warriors
للرجال
database
automatically
لنت
شرا
colored
اقدام
deciding
##وقين
dispers
حملت
bast
الصن
لكافة
جدية
تاكد
volatile
وكانوا
noon
lightning
laps
لبيع
##ايفية
ينزل
salvador
السادات
تقدمه
غاب
الناج
##فاذ
alv
هان
##زول
ceiling
fool
القروض
وانهم
berlus
stimulus
hitler
rust
دعما
حاتم
اثارت
اعتبرت
مليونا
nec
contrad
##يانغ
classification
automobile
mounting
مدنية
creates
وصوله
roose
viv
##pers
prestigious
amongst
احاديث
troy
اجتماعي
الخطيرة
artificial
##وغل
leonard
نفذت
الديون
subc
oliv
interpretation
##ارن
berlusconi
الخصوصية
مسلسلات
لحظات
rumsfeld
pursuing
honored
criteria
قومي
dear
تاييد
identical
overlo
الاقدام
الصفات
##اريف
credibility
indianapolis
##شيا
بالو
aziz
writ
جزاير
##ابداع
travels
##alom
##nxx
المبيعات
references
بكلية
تحديات
الحش
والصحة
filming
الحاض
الغنية
banner
##خلى
##دال
releasing
الانصار
148
ودعت
التهديدات
fein
الحاسوب
binding
heavyweight
##ayal
عشية
guaranteed
paramilit
المهد
pour
fence
##والد
الاهرام
stalled
##زى
طور
تتغير
الاضحى
syl
ينفذ
يوحنا
الاعداء
alar
bombard
surged
irreg
##sm
وتحويل
يربط
التقديم
boo
peres
وقطع
accessible
الوهاب
identification
johannes
محلي
الباردة
كاز
ucla
##ilitation
spectacular
hopeful
wise
البث
غطاء
##enhagen
المواجهات
دقة
##يرين
تقيم
الموضوعات
ارتفاعا
##icked
glenn
المرسوم
والسب
تند
##جهز
##aha
ced
europeans
السيرة
smile
##aser
والقي
تفهم
هال
##وزن
tonnes
archives
dominican
ernest
لصحيفة
وعشرين
aftermath
forty
excav
##bie
experiments
البدنية
picking
مزيدا
platforms
brooks
dong
الخسارة
بامت
ard
الماضيين
كارت
coached
المود
celtic
flown
دماء
مكتبه
الاستجابة
tat
slowdown
bennett
المصاد
blake
للشركات
##cs
##قاتل
منافسة
developers
صفات
gifts
##ليني
##itudes
السرير
تلقاييا
##وزان
مساهمة
confirmation
televised
مطحنة
buzz
لطيف
eleph
والشركات
rip
الجيزة
بامر
cun
lamb
hern
الطفولة
جاهزة
##bane
##عيون
jab
achievements
devil
ambush
##ولو
وشركة
gb
rumors
##لفة
مرحبا
الاعتداءات
nak
امان
وسبق
smuggling
sued
بمرض
للمنتخب
burial
سيرة
commitments
laund
ينفع
##vs
الصوتية
قنبلة
touchdowns
riots
ومنا
##acon
disband
##asia
victorian
يقر
المستوطنات
اندونيسيا
شد
لدراسة
urgent
عراقية
119
والمص
##ابعين
surpass
connecting
الفك
تفتيش
depot
railways
hosting
الباكستانية
ضغوط
الملاح
فانهم
heb
كنتم
والمسوول
العقوبة
##iferation
examine
اراضيها
الركن
المفاهيم
barak
التصعيد
boot
firefighters
lov
الحديدية
ممكنة
كمن
ودور
##anga
تمديد
mtv
سعودية
perez
##orton
الرجاء
##بهم
##رطان
##overed
nathan
boosted
publicity
وجوب
##يهود
##inely
sak
rushing
##لايل
historians
accepting
اعين
declare
اتمام
##خراط
warsaw
mandela
بخير
التراب
تزداد
المحور
العضلات
المجم
الايمة
الظهور
كثيرون
ارواح
endangered
احساس
instructions
عظم
اختلف
shirts
##arez
الموشرات
motivated
speaks
باللون
##تز
##ahan
##طايرات
##piece
هيا
overth
stopping
duch
تستضيف
benedict
بالنظر
merrill
##rina
##بعة
المثق
hod
planted
##hal
tyr
توازن
اتهامات
supervision
machinery
جغ
crus
sells
يوافق
لوح
بالشكل
lisa
avoided
المحليين
يستطع
moder
الشقيق
اذهب
##مسة
العسكر
يومية
intensive
بتوفير
للبي
عقول
نجل
holland
enlar
##oka
الزور
وسيل
الغاية
indicted
teeth
plaza
olmert
demolished
accomplished
illustrated
لارت
##iler
كاري
رع
##لقة
##ظهور
التكوين
##olics
##فسهم
##irmed
مشروعا
وهد
و8
##شنطن
مسج
transaction
شمالي
##خات
نجاد
معمر
catherine
نارية
مقبول
موتم
الايرانيين
##مرات
الانتماء
كولوم
millennium
المشروبات
الناشية
للاعت
معم
##ucker
##market
بتشكيل
guantan
وصار
طالبت
radiation
rus
collecting
##رقا
telegram
المفضلة
bip
يعترف
##لز
لايران
yields
نهاييات
examined
دوت
alg
defl
ware
##بيك
copenhagen
شرايح
retiring
postal
alumin
الظلام
الكثيرون
roosevelt
backup
الثلثاء
hailed
panic
guided
phenomenon
chronicle
تتحمل
ككل
امارة
الاصف
aging
الشبكات
deeper
والمم
تصدير
الارجح
hp
bulgarian
النبوية
السايل
والشر
columns
123
rational
mann
##lett
تكتب
aston
بالاعت
وكانها
brent
للتاكد
lesser
##force
التت
resum
##ركين
##ايا
guantanamo
صوتا
العظيمة
الاندرويد
المباحث
يمتد
witnessed
##omery
folks
##usen
##زعة
##سمة
responsibilities
فينا
مونت
##omi
معتد
اشعار
توقفت
##روبة
320
slovenia
المذهب
الوكيل
الضحية
الممارسة
1890
orn
physically
##جازات
شعرت
##ographer
separation
للصف
frustrated
انتشرت
schm
الحسيني
عظ
fib
duncan
chocolate
gauge
centered
مجتمعات
tremendous
بلادهم
لاهل
درج
intersection
flank
reader
تعليمات
tune
اولمرت
ملكية
controlling
شري
فسي
twins
التحضير
فالن
عايلته
عبدالم
الكيما
عمد
submit
rings
شباك
monte
للسنة
##همات
للاعب
##رحيب
orbit
والاق
irre
منظم
قاضي
cri
drain
##روبات
والامير
اشاد
##asha
genes
ويعود
122
##طرح
editions
##56
توب
للعلوم
المتميزة
##ثية
nonprofit
تعلق
irregular
leather
##ايخ
وادى
جعله
marvel
حكاية
##inks
الاذن
stockholm
##تقي
##zic
الانتصار
والشباب
hag
##صايية
##اتا
مستع
aviv
organisations
##mons
ابدى
تجاري
francois
تقي
##ذرة
gn
فلاش
doug
rider
بصدد
ثنايية
##ovan
corrid
##eon
المتطرف
damasc
sadr
shake
التعليمي
##ركاته
luxemb
fifty
اشتباكات
الاحساس
kazakhstan
ساف
تعيد
زجاج
تراجعت
الدنمار
##جاع
confused
والمعلومات
ساق
##ingham
chambers
surrend
الصيام
##rous
ولكل
##spec
palmer
solidarity
iaea
loop
shortage
duck
هايل
##شيات
1896
يصر
بشرية
##اصد
واللا
منخفضة
البنا
الخيال
##inge
##ropri
##عاقب
withdrawn
sheep
##try
##ilo
prad
gregory
المورخ
ظبي
sacramento
##يلو
doping
المنظومة
مهنة
الدورات
##فها
rhet
reliable
طموح
بلقب
المفهوم
1899
celebrations
theod
##رامات
##رنسية
flee
النظافة
توضح
المرجع
prompting
الموقتة
##اذبة
المغت
forecasts
prague
الورقة
بالبر
صاحبه
##قع
ankle
montgomery
rises
شعارات
##bron
ونادي
لانقاذ
##iago
##aters
authent
accommodate
156
mck
النازحين
##hel
expelled
tibetan
pist
slave
لبر
adoption
obligations
##عنا
نجاحا
السلبي
sketch
##children
##assi
متصل
naturally
المستفيد
الفرح
legendary
bundes
spare
الامبراطورية
الوادي
##urance
reserved
advancing
العبادة
البروتين
recruited
مبد
الاحتفاظ
ستقوم
dum
##صفية
نل
كوكب
كلنا
daw
يوان
occasional
henri
وممثل
waited
توكيل
comply
##وجات
instant
ويص
العروس
بامكانك
unidentified
نيجيريا
مدي
amy
وتعرض
##orse
اثيوبيا
تسهيل
update
##ريبات
المجانية
plug
راينا
العتي
xi
براي
imprisoned
المعسكر
السيية
lub
ferguson
المناسبات
##باقي
يصدق
دواير
اناس
سلا
مازن
الايمن
واجهة
embark
للنا
147
الاتية
instruction
افعال
سحر
distant
المخصص
تاريخها
cabin
gand
decrease
##ches
##auer
plea
##terior
عي
الميزان
الانقسام
3000
excessive
انعكاس
##ng
##ahar
mere
بلجيكا
الاصطنا
##arians
##غيب
presum
##ooter
اسلامي
ud
1940s
المثالية
catholics
heath
الحديقة
الافتتاح
اخيه
الدولارات
vermont
والاغ
dirty
overhaul
damascus
و4
##درالية
خات
##uka
سارك
reflecting
قتلى
المصير
marched
جرح
يتف
الملكة
العثماني
sham
dell
يعزز
وحكم
##ياطين
البكال
وري
spo
mik
التقاط
spac
sauce
ليك
mumbai
##خرط
الماجستير
تبعد
##ofi
boge
gosp
tasks
للتحقيق
moss
لعقد
تراكم
الاستغ
ces
ثالثة
يضيف
anders
المتك
الحجاب
##تج
robust
وقطاع
##زلت
الجمل
مسوولي
hait
laure
امهات
airstri
helen
##opal
فلسطينيين
يتحرك
angle
طايفة
تصنع
136
مبكر
abraham
يستفيد
الكتروني
قبله
municipalities
النفوس
whenever
بهدفين
امتحانات
اخطار
technological
##طلحات
ريتشارد
explosions
معاملة
مقا
mansion
fake
اكسب
##ributes
##تاح
acceptable
runway
مزارع
weaker
280
الوزارات
##lessly
thunder
كثر
##keley
الاولاد
##93
specialized
هجوما
memoir
عينه
بمكة
مسيولية
wrapped
اصحابه
المعطيات
##graduate
cycling
##alg
federer
wals
المهندسين
origins
الافعال
##enger
interfax
التركيب
hak
posed
whist
تركت
cros
اوضحت
تشري
المواطنة
مسلحين
يضاف
واين
##يدس
##موض
المزد
##راوية
ليتم
ضعيفة
housed
updated
##غليف
manual
mcm
##فزاز
##lain
وتطبيق
##fam
طوكيو
بلدي
محس
تحظى
العبارة
وماذا
##وخة
rebuilt
وتبادل
opinions
وتقع
انتقلت
gir
graves
الاحمد
##فتر
ليلى
cautious
choir
التقاعد
strengthening
safeg
النسايية
عصير
reveals
averaged
لقط
الموكد
hijack
curb
ويعتقد
ومف
والاتصالات
ماهو
مريض
مازالت
armored
##هيد
statistical
التجديد
مايكروسوفت
المطلقة
##وارات
برب
غربية
##ويب
نهيان
تتوقع
بجدة
emerge
للمساعدة
212
##ovsky
aber
##نغ
undersc
commons
ناهيك
##fly
مهندس
مسايل
عموم
تحريك
برلم
denounced
اعاد
biz
للطيران
استطلاع
hoff
flames
##رسول
يدرس
260
كوسوفو
shorter
و200
capita
اعتما
التخصصات
نافذة
مسوولة
ويضم
loves
tougher
prosperity
quarterfinals
succession
tense
concessions
الوفاة
maneu
walks
array
ونص
التغيرات
ضريبة
ensemb
والما
لمثل
اوقف
##erd
somehow
تاكل
وقوات
decorated
linking
الوقاية
observer
سنه
seemingly
الضي
pett
الضخمة
##rier
هدية
بالخارج
القضايي
الغالبية
renowned
اتف
للقاء
انو
voiv
الزكاة
consortium
dynamic
قصايد
يسبق
وني
تصفح
المبالغ
surveyed
يسقط
للعد
خلافا
الاعتقاد
sic
##onso
الهدوء
صلاحيات
downs
nurse
compact
minimal
عميق
جدار
drums
##اندة
جنوبي
نسمع
##agic
islamist
موريتانيا
##ching
preserv
##غض
الفيدر
printing
وابرز
التكلفة
optimism
والمانيا
elevation
يوجه
الدوام
##فلات
dame
لتامين
اال
salaries
##ampton
cups
##uania
spotted
##sy
لقا
##etz
businessmen
##ذايف
coordination
زيدان
تاثر
اهلا
yun
sne
cope
صمت
slot
jordanian
lars
محاضرة
defenders
مظهر
##توكول
تتحرك
الناتجة
درويش
نشاطات
advisor
شاطي
علق
buc
طاب
freshman
الجالية
bug
lithuania
القطار
عربيا
nova
##عياد
##زلي
المواصفات
تركية
fifteen
تغطي
removing
رين
ya
proportion
فانك
الاسمنت
animation
responding
لمل
تقويم
الشافعي
اصابع
adequate
موحد
بالامر
##ensis
اللفظ
محليا
budgets
ابحث
resid
##aching
سلب
استاد
##صص
##uala
##تمين
انضمام
اجر
مضم
romance
trainer
الزيارات
والاطفال
underwent
النيران
combine
somali
لايم
berkeley
الراق
الفحص
quarterly
garn
thoughts
##ماق
departed
php
الكافي
فيلا
##ippers
العطاء
المحرك
exciting
تجميع
والمناطق
##قلي
##inejad
1895
trends
ونش
transformed
الفعلي
الجندي
بافضل
furthermore
deton
ارهابي
المعني
awaiting
بالضبط
الجدير
الميات
tribune
riv
mead
للجامعة
اياها
وامكان
خلافات
decisive
للتخلص
ووزارة
shy
بجايزة
البطولات
##اجي
shak
الدوليين
وتنمية
فسوف
##ppe
للمنطقة
roberto
commanded
##حتهم
impe
يزداد
blocking
يشاء
ينطبق
لمساعد
بالمملكة
لحساب
المجد
الثانوي
##wned
انجازات
معكم
الاستعم
التوسع
الكنيست
mercury
sta
ضحية
##رافات
disarmament
العنصرية
logo
##offs
النفوذ
مادية
tir
مصم
ينتقل
وانشاء
كيس
تهريب
reactor
cheaper
الناصرة
متاحة
##anco
جوال
ساحل
تفكير
تشكيلة
عملي
oslo
اولياء
braves
##مشاهدة
##adic
بجم
dolph
يلا
poorly
اقتصاديا
dpr
تدا
inspections
##وانة
bureaucr
sailed
اوامر
استم
الاشغال
الكلى
124
##يدون
القصير
leftist
negotiators
petro
hectares
اوسلو
العنصر
بيريز
المعالجة
وتشجيع
وغالبا
المذ
challenger
lesb
السمك
##روش
spill
والعدالة
dictator
الاجل
##اجيل
كاش
conceded
anglo
marx
اسهل
لوحات
distinction
والعل
vest
والحديث
stap
مولف
##جدل
pard
evolved
nutrition
barriers
درعا
والحي
الصحفية
##ابلس
##iyah
hague
واتس
diameter
تسببت
الصليب
monitors
الهندسية
ذهبية
لمنطقة
lia
الصعوبات
cypriot
والمك
##ولها
backs
ناجحة
exempt
الفقيه
بزع
sacrifice
النشاطات
halted
breeding
capabilities
downturn
حروب
##issa
purchases
الخطط
##شرية
chun
##inda
rams
المشروعة
##يسكو
arrives
##رضي
واستمر
##inum
##باته
screening
غسان
schem
##ando
##وجها
##station
mam
##bis
corrupt
contrary
administered
sue
##chem
الاساليب
وارج
ثلا
النامية
cheng
وابل
canton
يخالف
رفي
عملهم
القصيدة
استيراد
##سيكي
لرو
العشرة
للبح
يمكنهم
##agar
يدعون
المدم
wounding
oc
##oya
استعمل
تقضي
painful
مومن
المسلح
##اهم
adjusted
التنظيمات
##anche
لايجاد
jp
الاوكر
nominations
1897
##سيوم
انج
##رافة
##ذهان
pursued
المبدا
حفر
بالار
يوفنتوس
الثورية
ترخيص
guarantees
حصار
للثقافة
##lets
والحياة
##icas
whites
حادة
##astroph
دبلوماسي
الفرنسيين
الحافظ
تتعامل
مساحات
التلم
gle
غسيل
##رجاع
ببر
emigr
##vas
rim
الويب
الابناء
seng
الكردي
الطوايف
وبس
يكاد
hammer
ارسلت
##oko
الميليشيات
صر
ruler
xxx
##وسى
##thouse
التحدث
installation
تعليمية
rut
حريق
الكذب
##رحب
مجل
مقعدا
متوق
وانتم
الكفاءة
rankings
ahmadinejad
rm
##uer
نر
والاسراييل
وشكل
##tic
sheff
السبيل
##يض
volleyball
##يدان
junta
##برغ
concentrated
الحرف
المعالم
enrichment
المشتبه
زمنية
عديد
المطروحة
يكمن
خطف
التمد
stored
levy
حكام
للاجيين
النيابي
compilation
ومدى
تدرس
pec
weakened
schroeder
##etically
rifles
nit
ونح
freight
راحة
##رقب
الاستيطان
يور
##ulsion
لكنني
##erts
باعداد
جبريل
catastroph
##خن
bam
الابتدايي
الشديدة
unbeat
فتحي
underc
حشرات
cec
specim
sams
وحذر
##ombo
للبنات
mv
البعيد
التوظيف
مصانع
خرو
cheer
شاهين
اللطيف
العولمة
مرافق
slaves
للشيخ
##elihood
##موحات
فعليا
##oba
##olly
booth
linda
##itary
zambia
##وازي
oval
##idd
lighting
venezuelan
ممارسات
leth
partisan
spectrum
نادر
plaint
المالك
البقاع
لمزيد
associations
witch
ومساعد
وسام
ومعرفة
##aran
اعتقلت
يان
fitness
ambul
##laus
explaining
##وانا
وتاثير
intensity
nac
lodge
iphone
المشي
hugo
رايس
venues
tsunami
providers
خذ
منازلهم
بالمل
hondur
هنري
fog
لوا
الاولوية
##91
##umbling
landsl
الحراك
صورا
juven
##جازر
culmin
121
رحب
تال
delaware
liz
##سابقة
السط
تتولى
salmon
bypass
بعدة
admit
pairs
الحشد
والكثير
محرم
الموتمرات
مداخل
bullets
مستعدة
بدعوة
الجدول
سموه
cooperative
cats
##قيقتين
divid
الهاد
##ilia
المناهج
تار
بقايا
ومجموعة
mandatory
تسويق
وشهدت
tissue
التشريعي
##ellation
hopefully
divide
babies
trace
فون
العبادي
الحملات
احراز
grades
وستكون
tracking
monica
المدعي
روسية
lucas
النصرة
تعطيل
##oshi
draws
##شم
والخط
للحوار
mercedes
rack
##وديو
والعرب
الاولمبي
pressures
الرايد
displays
##ربيا
جانبها
##uting
slowed
voluntary
mineral
1200
##عمه
استثنايية
wors
قلعة
soap
observation
يتن
مرورا
الكرامة
الانجيل
الشابة
##المة
communists
justify
حاف
hypoth
والمالية
البطاقة
تمس
اهلية
##ecca
رايد
##folk
meal
roma
مجمو
trin
وجب
محارم
برون
toys
##وجل
sidel
blaz
الرعب
publishers
الجغرافي
السنية
##olan
الانجازات
امتحان
وايج
highlighted
##unc
بالدمام
الشبان
developer
##زج
تضمنت
تجاوزت
##enegro
##oub
acceptance
ثماني
cubic
sorry
underlying
##رابطة
##واقب
حاجز
حتما
ممثلين
معامل
harold
promin
لطيفة
الممل
##سلسلة
تهمة
agrees
قدرته
وحيث
espn
بريطاني
البحيرة
campaigning
قبرص
purchasing
والمواد
##طاحة
montenegro
فمثلا
basil
##بيحة
##وطنة
والمشاركة
المصنعة
emphasized
##pear
##ribers
##atories
الاختبارات
بقول
##ترات
الابراج
##ايتها
##ومان
الفعلية
wishes
bottle
اسلم
pays
inherited
diplomacy
iz
ضخم
##oying
lease
nascar
الاضراب
تشخيص
تشيل
##غافورة
fug
##وازنة
cis
voivodes
graduation
forbid
turb
للكتاب
ناص
والكر
tract
نذكر
مفاجاة
المنظم
الحروف
##low
تفكر
انتخب
الجزر
للحركة
rafael
lone
الورق
بيتر
bailey
dud
الفوت
العميق
ثانوية
جزييا
zhu
فيهما
وانس
##zone
##rup
ليا
طيار
الزب
serie
willingness
لدفع
harvey
bless
فصول
النمل
اخضر
accordance
القرص
semifinal
altitude
adela
سوداء
bik
الادارات
##الع
sleeping
حان
b1
البرد
narrative
##ديما
qing
independently
stronghold
negl
اسمع
مضمون
يضرب
مـ
default
owen
theft
atp
يجعلها
بشير
المقاتلين
dwell
rtl
minorities
moll
originated
يرسل
تمييز
brien
insert
pickup
##ono
endemic
raises
dos
146
وزوجته
برفقة
cyber
انتهاكات
dio
##bn
##هض
interactive
جبران
كاميرا
##وابت
freestyle
والثلاث
ملكة
listing
pronounced
##وافذ
##pat
عيادة
والاصلاح
forbes
vand
المنتشرة
##طعام
تحق
توماس
recount
لاتفاق
luxembourg
بدع
##ميص
##داولة
ايصال
يمين
السطح
فجاء
ضربات
vil
نفط
financed
jurors
جهاد
purple
superintend
مفيد
##خخة
الحرارية
feeding
مجمل
grandson
lenn
shakespear
بكلمة
catalog
وكشفت
ديار
الجريدة
الاستعانة
##azi
tol
ومنطقة
kuala
للصحافيين
متفق
##سمت
بسب
الضريبة
سور
##ضاءة
merit
الطابق
##ربما
وبخاصة
##ardi
festivals
syndicate
taxi
infer
ملاب
والحمد
##قاقات
##ieu
صالة
1889
المسجل
joan
صالحة
المشاركون
لمشاهدة
لمحافظة
راجع
##سوارات
استفتاء
destroying
ترتفع
واعداد
relocated
namely
define
##itty
##isha
##bound
voivodeship
فف
قاتل
##usive
حيز
فراغ
##uters
incentives
تقود
ارتداء
الحضاري
robertson
##dan
موف
assembled
haul
وحي
hamm
speeches
بلير
ولكنهم
نموذجا
وبالرغم
##جهل
كود
##بني
فرعون
enrolled
brisbane
واه
نادرة
bore
راض
بثلاث
جاي
انطون
بلال
المحمولة
النجف
وابت
حقايق
confron
magistr
gem
كذب
##رتين
congregation
tender
leone
والقضاء
eleg
مبكرا
##uchi
نوري
ariel
##زوجة
الاحترام
cultures
المشرق
pian
بالاخ
كوس
museums
الطلبات
بالعديد
الاخري
يستعد
##اليل
تنتشر
الخالق
يحظى
ريب
consent
rehabilitation
القلعة
performers
##واتر
النسخ
مراه
walt
keys
المخاوف
shells
نزلت
للشرطة
الين
اوك
##كرتير
bare
sovereign
provider
##شفي
العصبية
refuse
اختبارات
##roe
البوابة
وفر
##رابي
سفارة
##نتيجة
كذ
frustration
تداعيات
criticised
edu
التحض
pradesh
##يتس
sharif
##دمان
mature
##بيرة
مثيل
امله
قايما
خري
capability
advances
##المات
ارو
organize
720
##دياد
berth
hebrew
trent
arrow
threaten
taxpayers
مقط
غذايية
اصحابها
وبركاته
pub
نظري
والدولة
المقالات
تنازل
firmly
وقالوا
عناوين
hamid
2030
تبعا
##appy
المسيولين
##دوا
مكانا
ladies
بحيرة
fights
رصيده
lawmaker
وعضو
بوج
شراكة
مواعيد
ساركوزي
governance
##itated
##فقه
##nar
مدبل
pall
المتوفرة
ويتوقع
##ders
تما
pars
باز
diving
steph
preservation
بنهاية
abund
semic
اتت
outlets
وطرق
##فلي
تبذل
fails
lingu
antar
امكن
bryan
##كمبيوتر
propaganda
التحقق
sg
transpl
enzy
migration
connor
الطبعة
##ذور
##ونهم
saves
بثلاثة
##حيم
والجيش
dispos
##طيين
bee
بيج
اخرها
amph
marcus
recognised
المحاسبة
مقدار
letting
طفلا
yorkshire
conferences
تورط
abstr
فلك
battling
بشرط
وصفة
climbing
punj
urge
##اندي
proceeds
الهزيمة
نايف
الاناث
تقدما
ووجد
الموضة
accounted
الكتل
وبرامج
approaching
tips
انان
##usa
nob
الرضا
##بيها
directions
الاسراييلى
##كليف
compliance
والفت
والموا
##ensen
نصرالله
يستغرق
والدم
مكن
الانفصال
الاستيناف
بالتص
lobbying
multip
والنظام
هادية
نامل
بغرض
هذة
ولادة
stom
الشاح
bend
##عوبة
التميز
واجهزة
التعب
##حادي
1893
##قتال
ينيك
koreans
حاله
روايات
موجهة
armenian
ساعتين
broadcasts
rans
بالتق
sheffield
المراهقة
قتلت
وفقد
التصفيات
##وسية
برغم
الامامية
interference
##ماهير
المفضل
##اويل
##نتاج
##دود
##عاهد
تستغرق
والاستثمار
يبد
homosexual
##سها
##bin
##akov
bankers
fleeing
kad
reich
يعتقدون
فاجاب
وبالف
successive
##كف
biology
##inter
profitable
drummer
kenyan
للجن
1885
wip
bmw
عيش
huang
الادوار
لمركز
بطرق
درب
##ستية
##eri
وحرص
monster
achieving
ethiopian
تراه
الالية
circles
بعمليات
ايتلاف
##ابتن
المهنة
وفلسطين
jeffrey
##افظات
punk
الخت
##عباء
sailing
deriv
المدرسي
المصرفي
صحيحا
توصيل
aires
affl
الجوايز
slav
##igation
santos
sandy
ceremonies
indirect
eta
الحذر
انترنت
الاحرار
للاع
صعوبات
قوايم
الموز
harbour
##ــا
المتطرفة
بالمركز
فرانك
تقليص
يصلح
rode
والمتوسطة
كونغ
امال
المدافع
1892
فاين
gan
بايرن
##iq
tyson
المسح
populated
للفوز
conversations
sto
##aksin
حقيبة
watchdog
العقبة
gibson
##نانة
tales
casting
bedroom
##اربين
rosen
vegetables
يقام
bump
ومعه
عذاب
##٠٠
مرضى
upgrade
القرض
##يكس
##بداد
اكتشفت
الريح
td
الطاولة
ضرورية
rag
الاوروبيين
defendant
java
بلاغ
floors
تكلم
يجعله
cyn
sergei
scenario
gt
strictly
##فسار
الاحتجاجات
الوجبات
بتحقيق
brah
وحفظ
##رسال
##برين
الاجزاء
fond
##aho
البحرينية
wart
الاهلى
العفش
karen
والمنطقة
المحب
resolutions
shareholder
##اهن
ولكننا
مطاعم
santiago
##وفان
##ells
وحركة
فاما
الثابتة
اللوحة
يحملون
استخراج
lengthy
جنبا
mortar
ninet
فعندما
manifest
الظالم
ودع
نصايح
الطعن
surveys
buenos
brows
يتصل
سحق
غن
refuses
muk
multim
1894
تنجح
refr
apartments
يبق
epidemic
##asan
perception
حمدان
والاجهزة
##وصات
utilities
اظن
##asses
puzz
ceased
هبوط
jumping
##gel
equality
الفرات
volc
indef
الالهية
عرضها
adelaide
الحاصل
beliefs
wheels
لسنوات
##الوا
كتايب
##ركون
وامر
##طاعة
يقلل
uruguay
clergy
mikh
والمغرب
بوب
herbert
gad
خزانات
##iances
تصفية
rabbi
alpha
miner
katrina
##obs
ويشير
الرييسة
##qual
ضروري
المناصب
الفلب
unac
biography
ديني
لتطبيق
شهرة
informal
##طالما
بمق
clearing
التفا
حاد
thaksin
transformation
يلجا
تعط
وقوة
elevated
##سنا
##مون
##enza
##erness
##يول
relating
طبقات
نعيم
الشراي
premiership
الاعتقال
alternate
buchan
##وليد
pastor
texts
denies
فيينا
##قلات
132
واستن
السلسلة
الواف
##غفر
##ivo
داي
واسعا
وفدا
ana
complement
باختيار
plates
gerald
kate
والفكر
chore
dale
وبسبب
اعم
server
لجامعة
الكربون
الانظار
steadily
رجع
boulev
لكني
koh
المعدل
designers
اندية
neill
لاه
بالانجليزية
##andro
expend
##نادق
yas
gabriel
##حمام
انتظر
isolation
##دات
injuring
ويوم
الاعدادية
architects
lesson
slim
coins
undermine
محاور
1870
بتطبيق
advocacy
damaging
alberto
تحركات
wellington
##eim
societies
##books
والاعمال
كمبيوتر
الموال
christianity
استلام
يتعلم
تخلي
عبوة
الانكليزية
theories
dome
estonia
النعم
fitted
estr
anthrop
نحت
البلديات
لافتة
الكنايس
الرشيد
##قاض
نعتقد
غازي
جلالة
الكندي
الاستد
الاستث
وضرورة
contractors
##كبة
السلط
convey
مصاب
##ضج
fet
العر
grandmother
prolong
مفاهيم
دراسته
arroy
disappointment
يرتفع
spencer
a3
دلالة
brack
بحل
لنشر
bunch
المعنيين
talented
ابنها
##جاجة
مستخدمي
الفلا
congr
canyon
فوت
لخط
ديون
elimination
البارد
klein
التوزيع
مواطنين
لفتح
التدابير
##ycl
##oper
bayern
شنت
##سلين
التاهل
##manuel
السادة
##هبة
المبادرات
rede
##غرى
mott
الاميرة
nc
rouge
##صق
##ifa
دكت
تصيب
شىء
dip
دينا
burton
اقامته
الاستمتاع
اغل
##ويش
##phis
لاختيار
ادارية
التوقيت
توصلت
coca
متد
drilling
##iciently
sworn
glory
##urring
cong
اتفاقات
الفرعية
mouse
والرو
تعديلات
ارسنال
##inho
الزل
زينب
##alan
diagnosed
employer
التغييرات
الاتجاهات
قف
stiff
النخبة
تراس
aux
كلف
matched
يقرر
حربا
distinctive
recalls
##يفاء
fen
bolivia
plac
يعلمون
الغزو
rebuilding
archaeological
القيود
unaccept
##inas
enters
dining
لاداء
المنصر
paramilitary
antib
الطيار
umb
استشهد
meh
suggestion
##لتين
سيودي
costly
reynolds
geomet
##ecute
anonymous
eldest
ناسفة
المنصوص
والدها
oversight
##يفر
ينطلق
idol
البرتغال
واعتبرت
معظمهم
مكاسب
الطبقات
##icism
betr
fay
oss
##تيبة
pt
##roft
النهوض
سلك
detected
لجعل
وبينما
متسا
unrel
التموين
oral
##walk
والارهاب
suspicious
تقتصر
gy
الطاهر
##هرية
##eki
##شك
التقويم
الثمانية
bolton
##ورط
جوان
تعزز
وتضمن
aggregate
المعارف
travelled
النع
##رواتيا
الصراعات
يمثلون
##urry
##وتهم
workshop
تاخ
النزاعات
highways
المعاملات
expertise
panels
الكفر
aub
##يوانية
المونديال
عاصم
##rip
بدت
mang
deer
ذاتية
حمود
impover
لقطاع
ceram
##عاه
##ماسك
provisional
الاستهلاك
##حاسب
##يرتها
فرضت
والاخلاق
bidding
wiz
suggestions
1888
الخبي
بلغة
حنا
1861
##يمياء
testify
hier
##iaries
rallies
العزل
bav
blown
تاخير
atop
الموسيقي
حكومات
المفروضة
##ei
للكل
bacteria
greenhouse
بابل
##زقة
config
lowered
theaters
gallon
fright
manor
##وغوس
زكريا
نشات
والاربع
والمياه
disl
مراكش
##نحة
soared
باهمية
##sis
خلل
شرعي
commanding
##لعت
الصلي
الاجر
يحد
محبة
dirt
thorn
انتهاك
wanting
حسنا
arroyo
##تمدت
spar
ordin
الابرياء
##غول
بذكر
##يسا
lumpur
ممل
1880
الارشيف
imprisonment
تحط
بالمحافظة
##owners
الحضارات
تعاقد
العقاب
قلوبهم
extradition
يتهم
الكوكب
##خيصة
والحصول
ببط
unified
permanently
solely
chains
yong
مارتن
جاسم
rabin
مستد
newton
الباس
مدنيين
enhanced
qualification
##ucci
kidnapp
القابضة
التكت
التقني
##orig
##شاركت
والاعل
##du
نيو
torped
narrowly
الخضر
لتجنب
واليابان
nearest
episc
teenage
مشابهة
measuring
trader
تستعد
##يصا
ماس
ووقع
اقتراب
القبل
casey
ellis
##iga
المعاني
اسنان
المظ
تاه
وتابعت
والتك
والمساواة
متفرقة
القلم
شح
المصانع
1891
confisc
typh
لشخص
##asted
##اطا
travelling
documented
قران
investing
لغات
alberta
scorer
##عاقبة
##abel
متس
priorities
مبكرة
اللواتي
ميديا
الانتهاكات
##anni
المنكر
والطاقة
nickname
طلبا
##ربوا
ايهود
تكاد
acute
يحاولون
dprk
telegraph
وانته
دن
niss
neo
outsk
تبارك
quietly
المسافرين
1865
##اسر
سبحان
##agr
secrets
التمرد
entity
جانبا
##رضة
slowing
لاتخاذ
الوصف
pp
التنوع
##سانة
archive
##بتة
android
النهج
موقتا
الانش
attraction
singers
والبرامج
claude
وتمكن
##yll
##يدير
henderson
الفقهاء
حرج
unoff
مواصفات
##etical
kofi
recommendation
delivering
الاخلاقية
العامين
finances
والعلاقات
للمسلمين
##شوف
sometime
concentrate
وتنت
الجرحى
التوت
##ayer
الفايت
والكويت
للمدينة
blu
ونز
##طالبات
الخشب
##روجين
يفوق
الحداثة
##اتك
يمكنكم
فاخذ
renaissance
##غاء
locals
وتقل
underway
michelle
considerably
##edients
charging
موازنة
##صان
وصفها
##طفاء
##imi
محامي
دمج
affiliate
##تاب
decent
randy
الراف
dissolved
بتسجيل
##afa
النظم
مواف
twist
##avery
fd
tb
plains
تتع
dash
companion
enabled
القياسي
المثقفين
انتقادات
zaire
marijuana
واطلق
بدفع
##quez
##egal
corresponding
stup
geoff
adri
انهى
الفوري
prayers
divorced
لتغيير
تصفيات
المجه
vigil
المحطات
facilitate
سماء
thomson
قادمة
الطايفي
التربة
نغ
يتوجه
متتالية
mush
قضت
chern
الاشتراكية
تدعى
ruins
fernandez
وطريقة
bulld
ingredients
والمنظمات
valencia
invaded
fragile
profound
حش
generals
ميونيخ
والناس
paragu
intends
ودا
strick
evaluation
وخلق
الدمام
##ados
checked
knife
##رحة
نابلس
كليب
بالاسكندرية
والاهم
jesse
##اهما
fulfill
فضيلة
undergo
بالعربية
بديلا
بمديرية
وتعليم
mysterious
filling
burund
mide
trinity
وصد
اقتحام
strategist
ادعاء
bengal
موقفا
basque
holmes
شيراك
المام
مديرة
devastated
رادي
embry
overl
وظل
zap
martyr
cogn
##nis
الرامية
##uckland
wei
##تهن
yuk
expressing
مندوب
##yne
slower
clerk
perfectly
leo
outskirts
inhib
حماة
1860
اعتقاد
الرقة
الخدم
##reen
التوبة
بتحديد
sexually
dair
شهدتها
input
بكون
##يثم
##afi
disk
خلفه
auckland
##teenth
##avi
##uto
لايف
سرد
كوبا
##onna
alumn
motorcycle
lankan
تجرى
واتخاذ
devot
spider
الراغبين
ويجعل
المريخ
choosing
ومستقبل
ملحوظ
واشاد
proclaimed
##hum
sword
bailout
كربلاء
notorious
restrain
overc
اكرم
agg
packages
الاكتشاف
##مينان
zam
permits
excluding
وتبين
خاصية
الوقايع
negotiator
جماعية
textile
##يفو
تجدر
##اصي
وصاحب
##تماع
gmina
##يشن
للسياحة
يتوجب
##uctive
الشاهد
revive
##رفا
kang
جعلها
storms
وسيط
ونظرا
تتجه
extensively
الصنع
easter
##osaur
contracted
garage
اعمالهم
##ضرات
healthcare
مريحة
حزام
##ــي
##arra
غرين
##bage
##ige
وبكل
lak
trap
anx
cruel
juice
poster
##ثه
مواجه
تامة
والشرطة
tide
العموم
##rons
مضيفه
lil
influences
##ركب
##itre
##تهاب
الظل
330
##رقص
florence
memphis
المحتل
مواق
jorge
kills
linear
بحوالي
attackers
زفاف
patric
standoff
باننا
المجتمعية
pierce
##orth
وفع
انثى
شاشات
مجد
قيس
evacuation
تاريخيا
وحلف
التكاليف
الزبير
unbeaten
ذكرها
التنازل
##boards
gospel
اتس
سليمة
violating
404
maliki
##طوبة
##elin
واقعية
##ينها
apost
يصلي
depri
rubin
السوبر
nephew
شهاب
lance
##سوا
حرس
يتوفر
المتحركة
collision
##راخ
بنود
عاتق
والدراسات
كـ
لاعمال
thereby
كيميا
colleague
basement
usc
##icity
raiders
عارف
##agne
juvent
discontin
ويظهر
وحب
halft
##far
فرنسية
sequel
الخاض
##قاتها
##87
##اجرة
الليمون
burg
vertical
##نيي
enforce
عطاء
اصعب
الاعاقة
شاكر
##مارين
jamie
proliferation
burma
المارك
بارتفاع
cleaning
surgeon
واجراء
المكلفة
programmes
##زما
##lif
لاغراض
ونتيجة
يامل
##space
قبض
nod
الاحتياطي
طاهر
رفضه
كثافة
التشريع
prud
pupp
specialists
glob
##اديين
اشعة
يناسب
عاجلة
##قاه
يدعي
zen
##astics
kron
الملاعب
##dong
فـ
حية
##رتا
النوعية
الوجوه
safely
مهن
impoverished
##رياضة
stark
ثلاثية
subscribers
سافر
slavery
##ضحيات
ink
المعاناة
صناعية
قديما
##طراب
skel
للحرب
الفيز
والعديد
##aceae
بالذ
قبالة
اعمارهم
##andez
robot
unacceptable
timet
بحياة
superintendent
surrendered
##pit
جدي
congrat
الخفيفة
affecting
stomach
وقفة
اليور
القاها
الاسيوي
الغني
اقامت
honey
قطار
patriarch
##iasm
خليج
##eco
##سلط
الموهلة
واستمرار
جدران
##85
julia
##ودع
##قاليم
##rand
صام
بركة
##وصي
الاشتباكات
comprises
وتوجيه
brokerage
الميناء
مبدي
سعيدة
carroll
تدرك
المرصد
innovative
lacked
850
filipino
shen
##اذن
prohibited
##ickers
##wright
declaring
شكوى
يحول
السوفياتي
##oi
الكمية
##ارتين
##ساهمة
vall
ناقش
معز
عجل
استيعاب
للتواصل
للمل
##arag
العط
tee
هندسة
##ainted
##vet
shakespeare
##نعة
معظمها
roadside
##rogen
الالف
romney
##boro
logic
penetr
لتشكيل
سلة
##قيها
5000
kost
intermediate
certificate
mozamb
تنف
ibn
skull
symbolic
نظافة
بارسال
الصفر
غالب
##جران
بلاك
senegal
suspend
##سيين
الربط
ميثاق
واطلاق
halftime
##fo
realistic
مخاط
forgotten
1864
adventures
الدكتوراه
صدى
خصم
nr
للجمهورية
قتيل
المقاعد
guatemala
المتكررة
exhaust
shame
##heimer
mock
freely
العذراء
bros
nucle
يذ
##رمة
scrutiny
##يتامينات
venice
mideast
التقدير
جلد
interch
للعلاج
labels
نقط
والتطوير
الاخرون
hr
youths
##gart
boulevard
مهند
##eca
##erving
السويسرية
التنموية
swan
مدم
نخبة
السايدة
platinum
تبت
مثالية
مبرر
##eez
norfolk
borrowing
لسنا
متعدد
جاد
accred
الصدارة
acknowledge
priced
donor
##رقت
##وذك
تتابع
dian
الانما
##احف
##urst
باقل
1887
التقليد
decreased
pg
##iper
بروح
##يجان
التلف
##osi
mikhail
##chenko
تحذ
drift
بروكسل
امارات
نتمنى
الاكثرية
عبدالح
والتدريب
طفلك
حالت
اخص
nyt
بالكويت
##فران
بحي
relegated
designation
fueled
piet
المدا
angela
يستطيعون
##iman
نتاج
مساحتها
لكاس
restrict
نوبل
تخطيط
الشفاء
##يرم
##ارو
390
وقرر
للمخ
martha
لتناول
زوجي
امتار
pruss
133
liberia
حداد
تمرير
##eur
##zyn
مراسم
##قله
المختص
julian
شديدا
lineback
albright
ensuring
autobi
تحية
يند
العلمانية
##ecraft
والجمع
tass
لصناعة
screens
يقدمها
alarm
reck
##person
الشهرية
ثقيلة
الرقمي
hi
courtroom
##oux
تنفيذه
##فرع
ought
##فالية
reads
بزعامة
بالاص
##will
##ابخ
jeopard
trademark
wisdom
encountered
fined
##nut
فوزي
ادان
##ساندة
الاوامر
عميقة
للنظر
اغلبية
الذكي
portions
sanction
##باكستان
##week
قرط
الجها
playstation
الضابط
butt
##eric
##world
hospitalized
ويبقى
##كاثر
خارطة
قمر
يخلق
ankara
تحتل
المحتملة
الكاينات
aborig
الحزبية
laser
قات
الشهادات
metre
naming
الولد
bruins
موحدة
السلطنة
الصحراوي
حبوب
المسيول
فضايية
stripped
##wig
fluid
##تناع
مطالبا
nowhere
يحتل
وروى
aggression
التقد
هدفه
unre
هونغ
الفيسبوك
قلم
##رداد
يشاهد
felix
tire
enthusiasm
القاتل
شعبه
##سامة
والاقتصادي
davies
tran
cripp
leak
##cht
بتغيير
hiro
##طبع
teenager
laurent
stepping
لرياسة
الكليات
ويشارك
التنفس
ترجع
hil
بالمقارنة
everyday
خفيف
keeper
العملاقة
شريحة
##ulates
وعرف
قرون
الفيروسات
يشرف
والجزاير
prefecture
##جيكي
الاون
##itively
subdiv
##eo
اهدافها
والحض
##ناوين
وشكرا
nerve
تنته
والبط
protested
1886
شركاء
سيارته
clem
ودود
toil
سعة
cigarette
highlights
##itic
genuine
##rative
بالامس
ينشر
رضوان
##ثبت
ensemble
المليون
lama
تعز
والتنسيق
encomp
beam
##iour
##قبض
##روفا
throws
##دري
كامب
توضع
الاجتماعى
terrain
pipe
##وساء
واليمن
ferrari
لاقت
morph
cere
rgb
جادة
تغييرات
وشك
diox
bother
واني
يتردد
##alt
الشهري
brok
curtis
sd
##ضبة
ci
##berger
mw
توصيات
##رموت
البصري
والدين
اثرها
ventures
ou
gel
والمغ
ديمقراطية
##nn
cliff
recipient
ودية
لايق
واثناء
والتخ
lucrative
soaring
فران
انطوان
جواد
cleric
اليسرى
اطلاقا
jaw
العمرية
الالات
يلب
##تاين
plagued
bike
بمكان
المدخل
يميل
اجراها
passport
breach
anxi
##stop
اتفاقيات
strengthened
##reb
##liga
starr
hernandez
متميز
الباطن
##oken
##خير
##n1
flooded
##enegger
خميس
غانم
1881
بالعودة
كاست
المطران
cola
rhetoric
نادى
قاسية
##annon
جامعات
عمري
الهج
يصب
stunning
##boat
للعديد
extremist
mccl
تتسبب
والنقل
مطلق
والته
جده
حيوية
صبح
مكر
بانك
chairs
المطلب
multin
الطفلة
لمجرد
حاش
immune
ذهن
##py
struggles
الجنين
امنا
physicians
دامت
##رقابة
grat
depicted
mcn
السجناء
##group
قتال
للمملكة
recruiting
##كتشف
ونشرت
##عدا
خلقه
حصد
##اضول
altered
##gov
كرسي
pupils
ابنته
jungle
التصريح
الاندلس
##isse
غنى
thirteen
فوري
congressman
تاريخي
nh
##otti
البحريني
aerosp
damp
ek
chrom
merkel
fiber
طبيع
qualifier
نعت
trades
عيان
##vy
spani
surprisingly
وتيرة
##vez
caf
preval
يلتزم
frost
والري
مطلعة
##ثت
رابعا
ببناء
1863
zel
prisons
المنط
المسابقات
dorm
المرجح
المركبة
الصلح
generating
التلوث
hitter
منفذ
##واجبات
يركز
تعق
العطلات
samsung
compass
resur
##utz
violin
##ople
gaming
ranges
jeremy
فلسطينيا
##irt
floating
محتويات
karad
ومز
جعجع
دينه
عدوان
الجغرافية
الاقتراح
spear
##reated
##حاسبة
careers
inevitable
hebron
fundra
المقارنة
##ابعاد
وبالفعل
rounded
اسرته
chorus
nin
وقايع
المستثمر
##اذبية
##cester
##etto
الكندية
tribut
معان
barnes
صال
الارواح
الاوايل
ineff
shipped
url
حزبه
remix
##ليج
الماز
ministerial
فلسفة
مكانها
عقبة
جهازك
لترك
انفاق
indefin
##ياتية
للتس
اتبع
##atorial
##ieties
beside
ترسل
quartet
rolls
chilean
منير
hike
الكلب
عاملا
استشهاد
فقام
فقه
calder
disclose
بادارة
mccar
##kind
##occ
minded
treating
المقط
الفيصل
المبكرة
technic
schwarzenegger
1882
اكان
رخصة
##ضيات
##ربها
يحرم
والحق
رايعا
accompanying
بنس
kohl
##حتك
##ija
##يطانية
الجمركية
التسوق
حط
تسربات
المعاملة
لازالة
perf
ننسى
سلطنة
حدثني
النحل
حيوانات
والحرية
##اريس
يفسر
holders
##غداد
##اقه
intact
دواء
greenspan
##quin
##امس
precise
descendants
rotation
usage
الناتو
بالمت
القصوى
وبف
garrison
وحقق
##حمة
fung
غارات
##etics
واسب
##تني
يهد
wend
فلقد
fiji
buchanan
crosses
النقاب
الزايد
مغربية
##صره
exhibitions
sends
sailors
طرحت
##باد
##arded
غني
الاربعين
semiconduct
##stown
الجر
باقامة
تسمع
kyr
عبرت
kurds
التعدين
السويدي
فماذا
والخاصة
الملوك
يضر
حكومي
يتضح
املا
##ارتي
وصفت
دنيا
kyi
الساخنة
##باني
naked
العصبي
beta
علمه
الافق
myers
وتوقع
لحين
تدبير
##وردة
##لزم
ذهاب
##رافقه
##ضاح
substantially
zurich
للخدمات
استقالة
تنشيط
الايسر
مسجل
1884
النسيج
creator
##تمية
founders
وسيت
repairs
maurice
##نر
تجس
##uers
axis
potter
loyalty
عدمه
بالال
احمدي
anxiety
للمو
حشد
129
لجمع
afric
اكتسب
مقرا
latvia
lifts
محظ
overr
breakdown
##jud
والبيية
قدموا
##قطار
والسبب
لهولاء
idaho
##او
harassment
ووجود
زكي
##اااااااا
theatrical
صبري
##git
للمشروع
المستحيل
##يلها
courthouse
flowing
للعودة
بالفيديو
distinguish
يناقش
multinational
1862
invented
144
monks
tablesp
الطاز
صحف
بطبيعة
inventory
المتطورة
هدفها
توقيت
سوس
وكلما
jong
eugene
خلفا
##ماة
grabbed
وهن
الاتفاقيات
كوش
حقوقهم
باض
pref
hollow
امامها
arctic
انكل
##ogether
##وضي
##يسور
aerial
##كما
##isy
قاض
سماحة
celebrating
مسمى
الميدانية
سمي
proteins
تهديدا
تستعمل
بدايات
##eting
greeted
princeton
قراره
melod
##غور
suite
##جبيل
صنف
يبين
apar
كانها
تعدد
تعتزم
knicks
الشغل
hedge
وعالم
يحسن
denom
المشر
##holders
legion
##لان
rahman
marco
للخطر
برنامجها
ايجابيا
automot
والشرق
##amas
للصحفيين
kidney
تحصيل
المثيرة
وبقي
عمارة
colleg
والمراة
الجنيه
volcano
النصايح
صعبا
##adan
overd
وارسل
وتحمل
المناعة
##قلالية
##ologically
سيناريو
nz
bells
موهل
275
جهتها
تسجل
تنتمي
grammar
يترتب
يسهم
cubs
meals
##وريين
##isph
altogether
contingent
ولكني
المحاولات
تضاف
##linary
انقر
introducing
الروحية
lover
وحم
sectarian
hazard
cellular
والجد
شركتنا
##كرار
ادوية
grove
عجلة
##mmet
##هوض
celebrities
النحاس
duration
البني
المدعو
كابول
الظن
commodity
وخدمات
livest
moist
والعق
ritual
زهرة
videot
السبعة
searched
الاصابات
طلعت
tariffs
bibl
##سوف
التغير
وتبلغ
dispatch
policeman
مليية
هاما
المحافظين
reviewing
unse
diabet
للازمة
##amine
الكاف
##هاينة
##omfort
المظل
##سينما
يملكون
swamp
طيز
المثير
تسقط
جدير
باسمه
tooth
aur
hig
declines
##بورغ
sans
سمار
claud
الاضطرابات
المعادلة
الصفقات
##سمع
المنه
المحلات
الاصفر
خارجي
##يوبي
jobless
ايفان
الاندون
exhibited
والقوات
##صرار
silk
الواسع
##acio
اقبل
للجمعية
ادب
##زيم
شوقي
##هاض
##kal
##rington
fortress
الورد
اولي
##فيها
bras
متحركة
##حور
##يانات
انخفضت
drinks
ووفق
عقارات
الاضواء
لاعبا
atroc
##writing
payroll
licenses
##tar
##iculum
rica
stephan
albany
andrews
قند
الرمل
دبلوماسية
عهده
automotive
gunfire
للقطاع
manning
##يازات
wade
mso
ومراكز
jum
سلبي
يطلع
134
cameroon
فتنة
venus
ايرادات
bian
انقل
كوال
ios
##يزر
غنية
lawn
##eus
##هز
تقوية
##build
##avan
##لتا
##ouds
##thor
الجوع
للوطن
fertil
تقرا
مرتبة
##ملين
shipments
حيفا
الراسمالية
مميزات
##رصاص
الزرقاء
promo
loos
militias
كعب
calculated
intentions
bali
بكثرة
ضمنها
حزمة
retrie
dictators
العادات
الترجي
الناجمة
اشتراك
عارض
لتسهيل
herb
##كيما
1439
بنغ
المنبر
توليد
godd
فاني
نسال
peg
mentally
بتصميم
##acion
plo
directing
مكثفة
terminus
والهي
##جزات
المختار
##هضة
glam
ووز
يتناسب
وقطر
juventus
نقا
والاقليمية
vaugh
viktor
blasts
napole
##حدر
rhodes
heroin
الرمال
اجتماعه
والمتم
revolt
كلفة
##opa
crawford
pork
وذات
تطرق
emotions
variable
##liner
##وطات
ende
افريقية
عربى
منق
engaging
##قيبة
متكامل
rivalry
واوروبا
addresses
ينتمون
المبذ
assignment
joke
##quis
الترمذي
hopkins
##icia
pilgrim
المخططات
خصيصا
##ماطم
مزيج
##ships
المعارضين
nurses
entrepreneur
dairy
baltic
legitim
نين
نرج
مجهول
حزن
codes
مقدمتها
اللوني
وموا
##alling
transmitted
shortages
##acies
benz
ابنايه
تصعيد
نيكول
تعترف
robbery
الباكستاني
ازال
غي
لذي
عينيه
وقفت
شاحنة
الثلاثي
nairo
النقابات
قيود
##oft
artif
اندلعت
##ضاعة
المعيشة
disclosure
راسهم
grip
التاسيس
نموا
تحقيقا
##owitz
يبعد
lieber
episcopal
قايل
بدخول
byz
##راضية
الجار
خلية
يقطع
grammy
##strom
meantime
هويته
اليورانيوم
implementing
الفيزياء
وترت
مقربة
استدعاء
للذ
رويا
##onte
الفنى
سجون
التنظيمية
##dled
نشرتها
writings
كارلوس
##tenham
baht
##arc
التسامح
orphan
##urd
البحار
والسياسة
suu
##marks
libyan
##print
gangs
gp
chim
استقب
candidacy
اضافي
patriot
aval
الشفافية
والمال
لنادي
وتدمير
restart
##يلان
فايقة
المحترفين
حسنة
تطبيقها
hing
hawk
والادارة
segments
recreation
interaction
porter
magnetic
ti
يولد
ولعب
اضاءة
trinidad
##atta
خطابه
ordering
الصفوف
الثقافات
heated
##uddin
الانتقادات
ضرر
##isely
فيدي
التما
nairobi
wartime
الكعبة
مشددة
لدخول
racism
بست
##cd
##راثية
ignore
##كومات
للاتصالات
تغريدة
##زيق
##اكي
الثوار
extends
310
عايلات
براون
التنقل
##anted
مهلة
brink
##uro
ايلي
بدولة
مدافع
tragic
الزهور
##دس
جوي
مقومات
zan
##فيظ
##endra
javier
الجدران
##خلا
leices
##هلية
##illes
devils
لعا
استبدال
بسط
carved
يدع
piz
بطريق
xia
ارن
##aders
بتخ
reactions
الجي
americas
crushed
لدور
stip
سمحت
يظن
محمدا
افق
confidential
coordinated
cannon
##izumi
دعمها
competitor
الوص
العادل
انتاجها
نصل
pleasure
عرق
بتطوير
##ندقية
##anian
يجيب
امم
pregnancy
سداد
minne
chester
تصب
روسي
المجاهدين
##سامح
للموتمر
الانه
يعالج
##حيل
##ener
##وثة
##eenth
ih
##ailing
##emption
للسيطرة
rwandan
بمفرد
##اديا
جنرال
acoust
جراحة
sag
الامس
cree
وذهب
باقت
السياسى
clut
##بيتها
تارة
walsh
hurricanes
فريقا
reversed
sheph
professors
##emi
karachi
للجدل
الموحدة
موقفها
deposit
بحالة
poultry
سيرا
recipe
ناز
لوحد
##conn
تربوية
notre
ابقاء
اليوناني
##بيل
spectators
الثلاثين
eased
##قوس
joel
posting
ومعظم
وختم
centres
بالجامعة
##family
##لسي
monopoly
horm
عرش
اوغ
functional
coin
birdie
##شارية
النرويج
##منا
الفقيرة
وراي
نقلها
ماريا
ومدينة
حربية
auditor
til
ومقر
vid
لحكومة
##وفه
دبليو
التعيين
اللحظات
الزمنية
intend
موقتة
seiz
صينية
##ريز
##loyed
بعقد
##istries
lever
واستطاع
##ups
##igo
قدرتها
تاويل
تيمية
objectives
ديكور
##isk
steal
armies
عسير
explorer
deadl
السواحل
##kinson
##وسس
تبد
الفيفا
precious
##دف
وعمر
##التها
المتوقعة
statesman
regain
والامر
favourite
هاتين
افعل
بجنوب
margins
المتنا
كاميرات
xin
وجرى
للتش
##asht
livestock
لكى
حكمه
kilograms
##حلية
lehman
ازد
##جلي
بسلام
##اتيكان
صوته
اينما
##وود
broncos
الفح
smok
##هراء
معقدة
السايد
##رارة
اعيد
sacked
الاستحقاق
##shot
الحايط
##64
ادي
##fu
summers
فارق
تعارض
طعم
عشاق
حاسمة
صيغ
incredible
confederate
##yd
##rians
الاقتصادى
##aru
breakaway
مركبة
الامارة
وفريق
محفوظ
airplane
deng
commemor
الشجرة
transported
##ردات
practiced
productivity
armenia
التليفزيون
المتشددين
المصد
الــ
شهيد
phosph
checking
sidelines
والامنية
لتمويل
لروس
رواتب
reopened
varied
والارت
والحقيقة
weighed
الصيغة
##anca
المكث
تصاميم
الودية
الرومانية
سوي
handic
يرا
##ماه
الزوجين
agu
##icz
##سير
huss
التسليم
كريمة
يشترط
الوسيلة
mask
الصعود
##adequ
للتوصل
ترش
الدوار
تدريس
##راضى
الجهل
وقانون
##غرام
newcom
countryside
revived
wives
الموض
abn
التمسك
contention
الدورية
مبني
المحظ
المرجعية
deliberately
الاشعة
arbitr
واخراج
الانفص
ينف
كوست
تنسى
##اليون
##ملات
exchanged
الموالية
winn
appreciation
تايوان
boarding
مترو
admits
الشيوع
rhode
inadequ
sich
indo
##اموس
وقدمت
##erable
##سنى
sounded
believing
servants
للاقتصاد
انواعها
variations
kurt
##vili
صلوات
مالا
يمس
unusually
يخاف
استراتيجيات
انعدام
rainfall
1883
مظل
هارت
التشريعات
مظلات
matching
المضي
تجميد
كرام
enacted
apology
undermin
انتخابية
بيون
كهربايية
والدته
##وقية
secretly
##جاوب
outgoing
shenz
tuc
وتراجع
خوري
aerospace
نون
retal
المستوطنين
عطية
ذكرنا
والسلطة
kenny
cac
cake
طاح
الفلسطينى
width
المتمثلة
اولوية
حلو
curve
رسالته
النقص
ولاسيما
الره
implications
rbi
سعي
brady
balk
##eves
اساتذة
grams
السحب
strained
بترك
ابداع
المشهور
sanders
strat
aster
##ينين
وبيع
numbered
باط
##liners
debates
unnamed
##ambig
وبالا
خدي
unst
تتقدم
pab
graduates
kot
cork
دليلا
وتمن
اضطرابات
locality
clement
تصاد
المستعمل
مسوولا
المتعة
احتجاز
قانونا
abilities
keyboard
الوزارية
ramos
belo
boxer
1876
التدريبات
اعج
وصلنا
وتحليل
للتربية
نضال
spotlight
للاستفادة
merchand
برقم
insisting
geographic
بالرب
uae
صغار
نقيب
sop
التقسيم
##drop
كورة
migrants
احنا
fishermen
embrace
endeav
ober
cb
##uth
karadzic
julie
وهواتف
bogey
aol
responses
reaff
retaliation
والعودة
matur
##57
ريم
cdy
القطن
sino
علی
السبل
حقيقيا
##يركا
koizumi
##براطور
بالبحث
الطراز
ae
تحض
andrea
محج
الايرادات
شفت
الاباحية
##eni
comprising
الامكانيات
فلت
السيناريو
بفوزه
colonies
العماني
algor
لاعداد
securing
اتجه
الضيوف
وود
fossil
sanctuary
bolster
mell
##bird
موتمرا
ونايب
finale
باتخاذ
entrepreneurs
##opy
tornado
minneapolis
##isers
bottles
الخصم
بالمشاركة
المتبقية
assad
insult
اجرا
صلاحية
الموقوف
ادوارد
tac
لاستكمال
##هش
تتحقق
##lete
الخريف
timetable
اصرار
faithful
boosting
navigation
##شارع
valle
تنتقل
uzbekistan
للحكم
ion
لزم
afl
boyfriend
بى
1871
واختيار
التمارين
##ريال
طاير
وضعية
##ulative
والعشرون
appreciate
مشعل
##ضباط
usb
فو
الموهل
واعط
تلام
automaker
ننتظر
والاي
المتحدثة
سبي
interpreted
##سيه
الامد
##dal
survivor
فمع
easing
الالمان
##لفت
slalom
١٩
اتفاقا
جماعي
shenzhen
المرشد
لليوم
النعيم
dominate
يتواجد
بيوم
shook
الاتحادي
##قيض
##تهد
وصفات
##hak
مصمم
sixteen
aristide
اجعل
respir
مجاهد
##ums
nazis
styl
redes
##imo
volcan
يحافظ
##ector
والغرب
unle
واهداف
concepts
sack
المعيشية
skiing
والحب
مختار
##هدفة
infilt
الاكاديمي
بورسعيد
amendments
conductor
الغداء
apec
نزول
بلده
علنا
pedest
العقبات
للاصابة
حازم
##يكو
الاغاثة
dragged
مرسوم
inland
##اشا
مبادرات
شيون
عقيدة
لبدء
العداء
هدى
presenting
##لمس
معقولة
aiming
mee
obstacles
##ايرة
hsl
موقعك
beetle
الروحي
justices
gav
فلل
متوفرة
للامام
derek
##تهية
algorith
winston
pam
##pert
bhutto
menu
قلبك
insuff
مقترح
##agram
المخالفات
للاخت
bipart
الاوان
وتشغيل
##elia
ولكي
fearing
manufacture
fines
لاستعادة
الشرط
beds
شقيقه
مستشفيات
الحدودي
دفن
remn
##اميك
##appropri
ينقص
احتفالات
اخفاء
fantastic
##anic
clause
britt
intrig
undergraduate
الخيمة
brass
##ensional
totaled
##سندر
poles
خلاص
baj
##arms
جسده
##علت
موجودا
mast
jas
ولات
curriculum
pag
فضيحة
وثلاثة
اسعاف
المجموع
batch
##club
solomon
##anton
guangdong
المزارعين
جاهد
##نيابة
ابني
##ونج
والاه
تسهم
molecular
الجسر
ونست
لصف
ellen
احتمالات
##سلي
doctrine
دردشة
131
شيوخ
بتوجيه
surely
خشية
sting
لطلب
behaviour
زيارات
انظار
اسيوط
ولايته
جيران
ونحو
tempt
1878
فيد
اشجار
بريف
الكثافة
pengu
header
##يمها
والعنف
##list
routinely
يلاحظ
##ضاعف
الساخن
##اعرة
characteristic
uniforms
حروف
trek
objections
timothy
lug
adrian
batteries
pence
تير
##وانية
تحقيقه
mitsub
الشركاء
القنصلية
disbanded
فوزا
تاهل
wholesale
laying
النسايي
المنيا
سلمية
راتب
para
##صيب
visitor
trailer
biot
ملوك
وقلت
دعوات
جولات
cluster
فالا
picks
sergeant
المتجددة
fuk
بالمعروف
battered
والاستفادة
##join
##ريين
صفير
persuaded
بمستوى
immunity
التردد
للتدريب
shifting
بايت
انتباه
##صدار
flexibility
وضبط
##ولم
مفاتيح
نشا
وتامين
commodities
imminent
##وثايق
lords
##وقاية
الهبوط
تكليف
##alis
وسع
issuing
cyr
يتراوح
collaborated
صيام
dancer
الامهات
التناقض
الرسل
مسط
يحتمل
الانتحار
والزراعة
ملخص
##رعه
##matic
ذمة
capped
مستوطن
##اقبة
وضم
allocated
##jin
gesture
fingers
للبرميل
essay
ويقع
joins
ايط
كبر
minus
التنافس
واثر
احتل
belfast
لاحكام
lynn
الكارثة
نسعى
مضادة
الخلل
kumar
marble
##هال
هدفين
premature
للارهاب
wagner
##eps
janet
ferdin
القايل
spraw
الشريك
##iott
##ضحة
امكانيات
بالطريقة
upgraded
viewing
medved
classroom
##etted
gothic
لتعليم
حفلة
mitsubishi
unofficial
libraries
قادرين
الطلق
protective
diabetes
##شاور
corridor
amounted
كتير
comparable
بالي
مذهلة
##erty
##سترول
##heads
العنصري
الجمارك
commercials
وتطور
antiqu
interchange
السودانيين
بحوث
thriller
المبيت
قبلها
icc
algerian
grandchildren
بلس
paramount
mps
تميم
جاهز
الكسندر
punjab
infections
الكلاب
صاحبها
المها
inauguration
##رايع
rental
بانور
lens
##بض
حفاظ
الضرورة
سلفا
##ingo
الاليات
##فسارات
raced
##fi
الغابات
المعتمد
isaac
يومها
##وافل
وجن
marginal
ecc
excellence
##يزان
flexible
مغربي
ابنايها
treatments
اعتداءات
giov
وخدمة
القايمين
رامي
ree
retailer
الاسبوعية
الابل
conclude
seminary
symbols
cure
تشهدها
##صلا
لتتمكن
صدارة
بلدا
diction
relegation
وتظهر
tires
missionary
بالتزامن
هاتفي
لمراقبة
barracks
والواقع
financially
استبعاد
##اطس
كلي
50th
spirits
تلتزم
##امو
سمارت
vamp
والسودان
والصلاة
##هره
ثانوي
##ضييق
الابتعاد
##انسحاب
لتنمية
##ساق
ct
suppliers
##alla
##غوب
hemisph
lethal
اليقين
pie
sinn
vow
العذاب
metals
ايرلندا
##وراء
والسياحة
ابلاغ
lacking
caucas
marcel
كليات
shallow
shouted
appealing
##طيها
clouds
##ديك
rejection
الالهي
compat
improper
البارز
يبعث
نقدية
##وجا
##rax
bib
rs
sib
مقبولة
قدرت
##ogne
وروساء
prescription
العقول
خصوصية
meyer
dors
seize
christie
مشر
الكود
dissent
الاسير
المخالفة
##zon
nicarag
واللي
ambitions
دافع
tuts
ونجح
inducted
##ردة
للدعم
precip
مقاتلي
عطل
warehouse
##lass
الطرفان
الزفاف
تعنى
midwest
لقانون
nicole
##مسين
hutch
reef
ماكينة
البييي
strokes
التعليمات
voyage
advanc
بالغاء
nem
tapes
الاتفاقات
برلمان
النية
pitt
##طعن
الشقيقة
##قلم
الحاد
nissan
التخزين
وتوكد
الاستطلاع
القاعة
##auf
لحق
ابرام
##dick
نفي
unpop
كرامة
الصوفية
تسرب
استقالته
##stro
قاعد
dag
الانفتاح
طعن
unnecess
lisbon
بالاط
حسان
abolished
وتصل
aq
##لاحق
اختارت
governed
putt
breathing
تقطيع
obligation
cigarettes
##archy
كولومبيا
enlisted
drawings
بمقت
locomotives
slobod
louise
majors
verb
والبعض
بالحب
تدريبات
alc
نزاع
liga
yo
interrupted
سوا
ابراج
الخمر
المراقب
ارادت
##راكم
نتايجها
exceeded
بعلبك
قوته
brokers
##unting
1875
للطفل
##ووا
##بتك
مقار
rachel
nowiki
المتبادلة
alpine
broadcaster
##irez
vie
جثث
شخصي
airfield
australians
delegate
##eville
generous
flavor
##جدد
metall
theology
volt
بوع
النقدي
richards
انتفاضة
استعرض
الالباني
مطلب
ملكا
خاطية
يتد
precisely
اترك
القمع
fourteen
تحقيقات
لحفظ
الجهوية
daim
statute
##86
سنغافورة
alike
التبليغ
skeptical
africans
ومكافحة
اللبنانيون
trailing
حكيم
لوزير
este
طنجة
ضمير
والتقدم
الاضافية
العبور
المتبادل
##ماض
الصالحة
confederation
مزايا
منفصلة
kyrgy
rulers
المنتخبات
صوب
فخرج
opposes
يحترم
التيارات
متطورة
كده
##arre
كجزء
foundations
ووض
##unted
مبروك
hydrogen
اسد
وبحث
فهمي
##incorp
العرق
فقالوا
القياس
اللتين
لعبت
ناع
الاسعاف
failures
carlo
جهل
matern
العباد
enclave
##inis
حساسية
وتوق
وكون
##ials
shattered
screenplay
حمدي
##باطا
perth
للوقوف
للمنظمة
مجهولة
middles
woo
الساحلية
coordinate
والسيد
متنا
لشعب
الجاهلية
لقضاء
##صاح
##وابق
التفاح
nl
slammed
niel
الخصايص
##anthrop
##اثرا
الدعاية
nd
##mith
##حديات
الاناضول
loving
اختفاء
الاصغر
لقرار
يراس
dispatched
trustees
محركات
circular
الابرز
##arin
midway
لخوض
للخط
##unda
opted
merchants
##bone
critically
المخيمات
sheets
قوام
##بغي
اضف
tunisia
epa
استمتع
##witz
##نوات
##حمود
darkness
marion
توي
presby
قتله
صغيرا
وانتاج
ومنظمة
العملي
##rus
ببل
هاتفك
##lies
وجبات
البنزين
الرفض
oversee
contractor
kyrgyz
اشر
##giving
ايديهم
##راحل
intensified
consequence
الخلية
سهلا
للدخول
توثيق
lb
لوج
ismail
bargain
ministries
صديقي
المي
nintend
knights
##ضايل
اعتق
##isch
##واجدة
evol
الرزاق
حضرموت
العمانية
340
literacy
##وليت
sebastian
##ucts
##رفه
postseason
للفلسطينيين
لور
للتعبير
productive
defens
##عادن
##حوذ
الملاحظات
##adors
evangelical
kandahar
اثينا
التشكيلة
نوفر
ramallah
المتواجد
الشباك
الفواكه
solic
صقر
allan
communicate
السهم
nok
مرسيدس
snake
##يلين
للحديث
موقعا
تراب
وشهد
يبذل
impeachment
battlefield
تضامن
الملحق
تفكيك
والتواصل
correction
anglican
##اتين
thread
وشركات
الصخور
والرسوم
##grounds
vault
اولها
##include
avoiding
الحقل
اشغال
وتشكيل
المكاتب
cylinder
يهودية
تحيط
بعناية
لسبب
##قاة
للفت
النمط
tactical
الترشح
advers
crafts
anwar
حقول
ايرانية
اهلي
patroll
182
ازرق
marse
حلت
الباطل
abducted
##essa
والنف
##inski
الاجور
مفخخة
dignity
##rella
##واطر
##ـع
anah
harmony
megaw
حبة
رياضي
falc
فذلك
pamp
jag
unanimously
##غاثة
والبحرين
ratt
##iqu
للتعرف
مدع
burundi
##قوبة
الدقايق
وتشكل
perpetr
##نو
tally
الاقبال
الشهور
cambodian
يعين
صناع
councill
tackles
threatens
للقا
##قدا
الاطباق
الثمانينات
##قلون
سيح
##ريجين
المثقف
outright
melt
willie
proxim
##شفاء
سرق
ورجل
jol
buyer
اسحق
##anto
##istically
warl
جنين
كاي
كق
ماله
وشرك
ركب
سويف
يلقي
تختار
nintendo
ومات
خصص
##جلوس
اسراييليين
ديمقرا
المتوفى
sibl
بشراء
الموقعة
beaches
بانتظار
##shad
اعتمدت
##لافيا
computing
nk
ein
##ystem
doctorate
undertaken
الصغرى
angered
كمان
مضيفة
grande
تستقبل
##وعها
bark
backl
revision
1879
بولندا
شاركوا
لهن
1872
للدكتور
تسال
جثمان
وعين
##سق
##incorporated
##oting
الانشاء
تبع
الكور
وظهر
celtics
ابراز
##ارقام
chaired
##xy
balloon
erod
dart
والقى
aspir
hungry
##باشر
applying
settling
حرا
لولاية
imposing
الواقعية
يطل
tolerance
المتواصل
relieved
cpc
جورجيا
baseman
الجانبية
وايا
البوت
شيت
##rified
divine
dmit
bann
flesh
contents
فاعلية
النافذة
jos
الانقل
siblings
اختصار
1867
السور
حاصل
drill
1600
##vant
الخيل
oath
##سابات
##oped
jacobs
العملاق
##idt
المقترح
abrupt
householder
eritre
lottery
تحدي
رويته
مدبلج
schumacher
متمن
فام
الولاء
مكتوم
##onen
مضت
الالياف
##atter
رغبته
teens
مكونة
تغي
zha
consciousness
supervisor
المراقبين
##ليين
العار
##amy
السيولة
kib
كاين
riley
tram
##وارب
transitional
اكيد
scared
cf
wrongdo
انابيب
##وهاج
المفس
consolidated
وليبيا
##len
والمعرفة
يبيع
بالمش
سفن
##قلها
سلمة
slated
اطلقها
المواهب
##theid
1868
ممكنا
الحارث
##inqu
مشاركتها
المقامة
butterfly
حذرت
##خذه
والقيام
مركب
معقول
السماوات
webb
onlyinclude
للمحافظة
بالتوقيت
podium
مشاركات
مقل
haj
##arten
باصدار
الغريبة
البنى
بنو
preca
ولاحظ
johannesburg
بقانون
##apa
incorpor
franz
وافريقيا
ماجستير
credible
##كله
hawks
عبور
تاثيرا
inclusion
losers
البكتيريا
##ellers
الفط
اللاس
بيار
المعلومة
analog
##eled
mistaken
ذكرته
possibilities
##تبع
##uta
consequently
البسيط
حددت
safeguard
lesbian
تغيرت
unpopular
اطلب
ملاحظات
تكفي
unhappy
ليال
للعلاقات
corners
انتشر
##ادلات
وخص
stunned
اقوم
apartheid
طالت
cataly
هارون
انطب
ماكس
pleasant
الصفة
الانع
الجع
insight
khat
الممكنة
##ourse
واضافة
الجوه
pants
عدل
thresh
container
expired
coch
statewide
##minster
##عتهم
بالحياة
teenagers
prey
والالتزام
نتج
وازالة
والتنظيم
fischer
##isle
telesc
مدون
يقودها
متفرج
المستهلكين
manuscript
methodist
wilhel
ومسا
speedway
ampl
##ст
الكاين
العمارة
ستي
romanized
goss
صافي
centim
##فظة
shane
##itrust
##يبي
380
الضوي
الحامل
exceptional
مسيحي
حماد
drunk
الازواج
reinforced
##فرين
silicon
hm
التصنيع
مستقرة
بوسع
التفجير
والعالمية
##ومني
traces
مجموعه
اضطراب
الفايزين
sympathy
للعا
فنون
يليق
سايل
المعالج
وتونس
ممد
سعادته
دياب
##صالحة
mish
الفعالة
المعاهد
##وسين
تمل
##ellan
seasonal
##غلو
نير
iso
##نتايج
الاجمالية
dancers
اجابة
استقر
الاوب
للمحت
kaw
##colm
وحجم
ولدى
excluded
persistent
والاكثر
الامثلة
accords
##هيم
الروماني
كوت
والاهتمام
السلفية
الضمير
يمكنني
apoll
vint
يدر
cautioned
afc
branded
endorsement
الاذا
chapters
tyler
blond
مجهود
variation
##oct
وترتيب
متعة
swap
vacant
الممتدة
##هاين
oy
الزلزال
القادمين
colombo
blunt
تبنى
الفاك
للتف
##points
##وريات
presumably
تحمي
425
##يكات
الضارة
والقوانين
وصلوا
intelligent
dioxide
##ادمة
الاحتياط
تفاقم
effectiveness
##itement
مقبرة
غرام
القياسية
kod
وعنوان
varieties
يشتبه
لطلاب
edmund
##يزية
وبان
يشعرون
الاجماع
leslie
chu
connects
المنصورة
محتملة
repeal
eurozone
بالعالم
داعي
والفنون
اللغوية
lacks
الكافية
نفهم
بيري
##اصرين
منفر
تتن
skilled
طرحها
بمنع
portraits
بتسليم
malcolm
البيط
[...]
